{
  "version": "1.0",
  "truncation": {
    "direction": "Right",
    "max_length": 512,
    "strategy": "LongestFirst",
    "stride": 0
  },
  "padding": null,
  "added_tokens": [
    {
      "id": 0,
      "content": "<|begin_of_text|>",
      "single_word": false,
      "lstrip": false,
      "rstrip": false,
      "normalized": false,
      "special": true
    },
    {
      "id": 1,
      "content": "<|endoftext|>",
      "single_word": false,
      "lstrip": false,
      "rstrip": false,
      "normalized": false,
      "special": true
    },
    {
      "id": 64000,
      "content": "<|fim_prefix|>",
      "single_word": false,
      "lstrip": false,
      "rstrip": false,
      "normalized": false,
      "special": true
    },
    {
      "id": 64001,
      "content": "<|fim_middle|>",
      "single_word": false,
      "lstrip": false,
      "rstrip": false,
      "normalized": false,
      "special": true
    },
    {
      "id": 64002,
      "content": "<|fim_suffix|>",
      "single_word": false,
      "lstrip": false,
      "rstrip": false,
      "normalized": false,
      "special": true
    },
    {
      "id": 64003,
      "content": "<|fim_pad|>",
      "single_word": false,
      "lstrip": false,
      "rstrip": false,
      "normalized": false,
      "special": true
    },
    {
      "id": 64004,
      "content": "<|filename|>",
      "single_word": false,
      "lstrip": false,
      "rstrip": false,
      "normalized": false,
      "special": true
    },
    {
      "id": 64005,
      "content": "<|gh_stars|>",
      "single_word": false,
      "lstrip": false,
      "rstrip": false,
      "normalized": false,
      "special": true
    },
    {
      "id": 64006,
      "content": "<|issue_start|>",
      "single_word": false,
      "lstrip": false,
      "rstrip": false,
      "normalized": false,
      "special": true
    },
    {
      "id": 64007,
      "content": "<|issue_comment|>",
      "single_word": false,
      "lstrip": false,
      "rstrip": false,
      "normalized": false,
      "special": true
    },
    {
      "id": 64008,
      "content": "<|issue_closed|>",
      "single_word": false,
      "lstrip": false,
      "rstrip": false,
      "normalized": false,
      "special": true
    },
    {
      "id": 64009,
      "content": "<|jupyter_start|>",
      "single_word": false,
      "lstrip": false,
      "rstrip": false,
      "normalized": false,
      "special": true
    },
    {
      "id": 64010,
      "content": "<|jupyter_text|>",
      "single_word": false,
      "lstrip": false,
      "rstrip": false,
      "normalized": false,
      "special": true
    },
    {
      "id": 64011,
      "content": "<|jupyter_code|>",
      "single_word": false,
      "lstrip": false,
      "rstrip": false,
      "normalized": false,
      "special": true
    },
    {
      "id": 64012,
      "content": "<|jupyter_output|>",
      "single_word": false,
      "lstrip": false,
      "rstrip": false,
      "normalized": false,
      "special": true
    },
    {
      "id": 64013,
      "content": "<|empty_output|>",
      "single_word": false,
      "lstrip": false,
      "rstrip": false,
      "normalized": false,
      "special": true
    },
    {
      "id": 64014,
      "content": "<|commit_before|>",
      "single_word": false,
      "lstrip": false,
      "rstrip": false,
      "normalized": false,
      "special": true
    },
    {
      "id": 64015,
      "content": "<|commit_msg|>",
      "single_word": false,
      "lstrip": false,
      "rstrip": false,
      "normalized": false,
      "special": true
    },
    {
      "id": 64016,
      "content": "<|commit_after|>",
      "single_word": false,
      "lstrip": false,
      "rstrip": false,
      "normalized": false,
      "special": true
    },
    {
      "id": 64017,
      "content": "<|reponame|>",
      "single_word": false,
      "lstrip": false,
      "rstrip": false,
      "normalized": false,
      "special": true
    },
    {
      "id": 64018,
      "content": "<|ifm|im_start|>",
      "single_word": false,
      "lstrip": false,
      "rstrip": false,
      "normalized": false,
      "special": true
    },
    {
      "id": 64019,
      "content": "<|ifm|im_end|>",
      "single_word": false,
      "lstrip": false,
      "rstrip": false,
      "normalized": false,
      "special": true
    },
    {
      "id": 64020,
      "content": "<|sys_start|>",
      "single_word": false,
      "lstrip": false,
      "rstrip": false,
      "normalized": false,
      "special": true
    },
    {
      "id": 64021,
      "content": "<|sys_end|>",
      "single_word": false,
      "lstrip": false,
      "rstrip": false,
      "normalized": false,
      "special": true
    },
    {
      "id": 64022,
      "content": "<|start_header_id|>",
      "single_word": false,
      "lstrip": false,
      "rstrip": false,
      "normalized": false,
      "special": true
    },
    {
      "id": 64023,
      "content": "<|end_header_id|>",
      "single_word": false,
      "lstrip": false,
      "rstrip": false,
      "normalized": false,
      "special": true
    },
    {
      "id": 64024,
      "content": "<|eot_id|>",
      "single_word": false,
      "lstrip": false,
      "rstrip": false,
      "normalized": false,
      "special": true
    },
    {
      "id": 64025,
      "content": "<|begin_of_thought|>",
      "single_word": false,
      "lstrip": false,
      "rstrip": false,
      "normalized": false,
      "special": true
    },
    {
      "id": 64026,
      "content": "<|end_of_thought|>",
      "single_word": false,
      "lstrip": false,
      "rstrip": false,
      "normalized": false,
      "special": true
    },
    {
      "id": 64027,
      "content": "<|begin_of_solution|>",
      "single_word": false,
      "lstrip": false,
      "rstrip": false,
      "normalized": false,
      "special": true
    },
    {
      "id": 64028,
      "content": "<|end_of_solution|>",
      "single_word": false,
      "lstrip": false,
      "rstrip": false,
      "normalized": false,
      "special": true
    },
    {
      "id": 64029,
      "content": "<ifm|think>",
      "single_word": false,
      "lstrip": false,
      "rstrip": false,
      "normalized": false,
      "special": false
    },
    {
      "id": 64030,
      "content": "</ifm|think>",
      "single_word": false,
      "lstrip": false,
      "rstrip": false,
      "normalized": false,
      "special": false
    },
    {
      "id": 64031,
      "content": "<image>",
      "single_word": false,
      "lstrip": false,
      "rstrip": false,
      "normalized": false,
      "special": true
    },
    {
      "id": 64032,
      "content": "</image>",
      "single_word": false,
      "lstrip": false,
      "rstrip": false,
      "normalized": false,
      "special": true
    },
    {
      "id": 64033,
      "content": "<video>",
      "single_word": false,
      "lstrip": false,
      "rstrip": false,
      "normalized": false,
      "special": true
    },
    {
      "id": 64034,
      "content": "</video>",
      "single_word": false,
      "lstrip": false,
      "rstrip": false,
      "normalized": false,
      "special": true
    },
    {
      "id": 64035,
      "content": "<audio>",
      "single_word": false,
      "lstrip": false,
      "rstrip": false,
      "normalized": false,
      "special": true
    },
    {
      "id": 64036,
      "content": "</audio>",
      "single_word": false,
      "lstrip": false,
      "rstrip": false,
      "normalized": false,
      "special": true
    },
    {
      "id": 64037,
      "content": "<|user_start|>",
      "single_word": false,
      "lstrip": false,
      "rstrip": false,
      "normalized": false,
      "special": true
    },
    {
      "id": 64038,
      "content": "<|user_end|>",
      "single_word": false,
      "lstrip": false,
      "rstrip": false,
      "normalized": false,
      "special": true
    },
    {
      "id": 64039,
      "content": "<|assistant_start|>",
      "single_word": false,
      "lstrip": false,
      "rstrip": false,
      "normalized": false,
      "special": true
    },
    {
      "id": 64040,
      "content": "<|assistant_end|>",
      "single_word": false,
      "lstrip": false,
      "rstrip": false,
      "normalized": false,
      "special": true
    },
    {
      "id": 64041,
      "content": "<ifm|tools>",
      "single_word": false,
      "lstrip": false,
      "rstrip": false,
      "normalized": false,
      "special": false
    },
    {
      "id": 64042,
      "content": "</ifm|tools>",
      "single_word": false,
      "lstrip": false,
      "rstrip": false,
      "normalized": false,
      "special": false
    },
    {
      "id": 64043,
      "content": "<ifm|tool_call>",
      "single_word": false,
      "lstrip": false,
      "rstrip": false,
      "normalized": false,
      "special": false
    },
    {
      "id": 64044,
      "content": "</ifm|tool_call>",
      "single_word": false,
      "lstrip": false,
      "rstrip": false,
      "normalized": false,
      "special": false
    },
    {
      "id": 64045,
      "content": "<tool_response>",
      "single_word": false,
      "lstrip": false,
      "rstrip": false,
      "normalized": false,
      "special": false
    },
    {
      "id": 64046,
      "content": "</tool_response>",
      "single_word": false,
      "lstrip": false,
      "rstrip": false,
      "normalized": false,
      "special": false
    },
    {
      "id": 64047,
      "content": "<|table_start|>",
      "single_word": false,
      "lstrip": false,
      "rstrip": false,
      "normalized": false,
      "special": true
    },
    {
      "id": 64048,
      "content": "<|table_row|>",
      "single_word": false,
      "lstrip": false,
      "rstrip": false,
      "normalized": false,
      "special": true
    },
    {
      "id": 64049,
      "content": "<|table_end|>",
      "single_word": false,
      "lstrip": false,
      "rstrip": false,
      "normalized": false,
      "special": true
    },
    {
      "id": 64050,
      "content": "<ifm|think_fast>",
      "single_word": false,
      "lstrip": false,
      "rstrip": false,
      "normalized": false,
      "special": false
    },
    {
      "id": 64051,
      "content": "</ifm|think_fast>",
      "single_word": false,
      "lstrip": false,
      "rstrip": false,
      "normalized": false,
      "special": false
    },
    {
      "id": 64052,
      "content": "<ifm|think_faster>",
      "single_word": false,
      "lstrip": false,
      "rstrip": false,
      "normalized": false,
      "special": false
    },
    {
      "id": 64053,
      "content": "</ifm|think_faster>",
      "single_word": false,
      "lstrip": false,
      "rstrip": false,
      "normalized": false,
      "special": false
    },
    {
      "id": 64054,
      "content": "<ifm|tool_calls>",
      "single_word": false,
      "lstrip": false,
      "rstrip": false,
      "normalized": false,
      "special": false
    },
    {
      "id": 64055,
      "content": "</ifm|tool_calls>",
      "single_word": false,
      "lstrip": false,
      "rstrip": false,
      "normalized": false,
      "special": false
    },
    {
      "id": 64056,
      "content": "<ifm|arg_key>",
      "single_word": false,
      "lstrip": false,
      "rstrip": false,
      "normalized": false,
      "special": false
    },
    {
      "id": 64057,
      "content": "</ifm|arg_key>",
      "single_word": false,
      "lstrip": false,
      "rstrip": false,
      "normalized": false,
      "special": false
    },
    {
      "id": 64058,
      "content": "<ifm|arg_type>",
      "single_word": false,
      "lstrip": false,
      "rstrip": false,
      "normalized": false,
      "special": false
    },
    {
      "id": 64059,
      "content": "</ifm|arg_type>",
      "single_word": false,
      "lstrip": false,
      "rstrip": false,
      "normalized": false,
      "special": false
    },
    {
      "id": 64060,
      "content": "<ifm|arg_value>",
      "single_word": false,
      "lstrip": false,
      "rstrip": false,
      "normalized": false,
      "special": false
    },
    {
      "id": 64061,
      "content": "</ifm|arg_value>",
      "single_word": false,
      "lstrip": false,
      "rstrip": false,
      "normalized": false,
      "special": false
    },
    {
      "id": 64062,
      "content": "reserved_special_token_12",
      "single_word": false,
      "lstrip": false,
      "rstrip": false,
      "normalized": false,
      "special": true
    },
    {
      "id": 64063,
      "content": "reserved_special_token_13",
      "single_word": false,
      "lstrip": false,
      "rstrip": false,
      "normalized": false,
      "special": true
    },
    {
      "id": 64064,
      "content": "reserved_special_token_14",
      "single_word": false,
      "lstrip": false,
      "rstrip": false,
      "normalized": false,
      "special": true
    },
    {
      "id": 64065,
      "content": "reserved_special_token_15",
      "single_word": false,
      "lstrip": false,
      "rstrip": false,
      "normalized": false,
      "special": true
    },
    {
      "id": 64066,
      "content": "reserved_special_token_16",
      "single_word": false,
      "lstrip": false,
      "rstrip": false,
      "normalized": false,
      "special": true
    },
    {
      "id": 64067,
      "content": "reserved_special_token_17",
      "single_word": false,
      "lstrip": false,
      "rstrip": false,
      "normalized": false,
      "special": true
    },
    {
      "id": 64068,
      "content": "reserved_special_token_18",
      "single_word": false,
      "lstrip": false,
      "rstrip": false,
      "normalized": false,
      "special": true
    },
    {
      "id": 64069,
      "content": "reserved_special_token_19",
      "single_word": false,
      "lstrip": false,
      "rstrip": false,
      "normalized": false,
      "special": true
    },
    {
      "id": 64070,
      "content": "reserved_special_token_20",
      "single_word": false,
      "lstrip": false,
      "rstrip": false,
      "normalized": false,
      "special": true
    },
    {
      "id": 64071,
      "content": "reserved_special_token_21",
      "single_word": false,
      "lstrip": false,
      "rstrip": false,
      "normalized": false,
      "special": true
    },
    {
      "id": 64072,
      "content": "reserved_special_token_22",
      "single_word": false,
      "lstrip": false,
      "rstrip": false,
      "normalized": false,
      "special": true
    },
    {
      "id": 64073,
      "content": "reserved_special_token_23",
      "single_word": false,
      "lstrip": false,
      "rstrip": false,
      "normalized": false,
      "special": true
    },
    {
      "id": 64074,
      "content": "reserved_special_token_24",
      "single_word": false,
      "lstrip": false,
      "rstrip": false,
      "normalized": false,
      "special": true
    },
    {
      "id": 64075,
      "content": "reserved_special_token_25",
      "single_word": false,
      "lstrip": false,
      "rstrip": false,
      "normalized": false,
      "special": true
    },
    {
      "id": 64076,
      "content": "reserved_special_token_26",
      "single_word": false,
      "lstrip": false,
      "rstrip": false,
      "normalized": false,
      "special": true
    },
    {
      "id": 64077,
      "content": "reserved_special_token_27",
      "single_word": false,
      "lstrip": false,
      "rstrip": false,
      "normalized": false,
      "special": true
    },
    {
      "id": 64078,
      "content": "reserved_special_token_28",
      "single_word": false,
      "lstrip": false,
      "rstrip": false,
      "normalized": false,
      "special": true
    },
    {
      "id": 64079,
      "content": "reserved_special_token_29",
      "single_word": false,
      "lstrip": false,
      "rstrip": false,
      "normalized": false,
      "special": true
    },
    {
      "id": 64080,
      "content": "reserved_special_token_30",
      "single_word": false,
      "lstrip": false,
      "rstrip": false,
      "normalized": false,
      "special": true
    },
    {
      "id": 64081,
      "content": "reserved_special_token_31",
      "single_word": false,
      "lstrip": false,
      "rstrip": false,
      "normalized": false,
      "special": true
    },
    {
      "id": 64082,
      "content": "reserved_special_token_32",
      "single_word": false,
      "lstrip": false,
      "rstrip": false,
      "normalized": false,
      "special": true
    },
    {
      "id": 64083,
      "content": "reserved_special_token_33",
      "single_word": false,
      "lstrip": false,
      "rstrip": false,
      "normalized": false,
      "special": true
    },
    {
      "id": 64084,
      "content": "reserved_special_token_34",
      "single_word": false,
      "lstrip": false,
      "rstrip": false,
      "normalized": false,
      "special": true
    },
    {
      "id": 64085,
      "content": "reserved_special_token_35",
      "single_word": false,
      "lstrip": false,
      "rstrip": false,
      "normalized": false,
      "special": true
    },
    {
      "id": 64086,
      "content": "reserved_special_token_36",
      "single_word": false,
      "lstrip": false,
      "rstrip": false,
      "normalized": false,
      "special": true
    },
    {
      "id": 64087,
      "content": "reserved_special_token_37",
      "single_word": false,
      "lstrip": false,
      "rstrip": false,
      "normalized": false,
      "special": true
    },
    {
      "id": 64088,
      "content": "reserved_special_token_38",
      "single_word": false,
      "lstrip": false,
      "rstrip": false,
      "normalized": false,
      "special": true
    },
    {
      "id": 64089,
      "content": "reserved_special_token_39",
      "single_word": false,
      "lstrip": false,
      "rstrip": false,
      "normalized": false,
      "special": true
    },
    {
      "id": 64090,
      "content": "reserved_special_token_40",
      "single_word": false,
      "lstrip": false,
      "rstrip": false,
      "normalized": false,
      "special": true
    },
    {
      "id": 64091,
      "content": "reserved_special_token_41",
      "single_word": false,
      "lstrip": false,
      "rstrip": false,
      "normalized": false,
      "special": true
    },
    {
      "id": 64092,
      "content": "reserved_special_token_42",
      "single_word": false,
      "lstrip": false,
      "rstrip": false,
      "normalized": false,
      "special": true
    },
    {
      "id": 64093,
      "content": "reserved_special_token_43",
      "single_word": false,
      "lstrip": false,
      "rstrip": false,
      "normalized": false,
      "special": true
    },
    {
      "id": 64094,
      "content": "reserved_special_token_44",
      "single_word": false,
      "lstrip": false,
      "rstrip": false,
      "normalized": false,
      "special": true
    },
    {
      "id": 64095,
      "content": "reserved_special_token_45",
      "single_word": false,
      "lstrip": false,
      "rstrip": false,
      "normalized": false,
      "special": true
    },
    {
      "id": 64096,
      "content": "reserved_special_token_46",
      "single_word": false,
      "lstrip": false,
      "rstrip": false,
      "normalized": false,
      "special": true
    },
    {
      "id": 64097,
      "content": "reserved_special_token_47",
      "single_word": false,
      "lstrip": false,
      "rstrip": false,
      "normalized": false,
      "special": true
    },
    {
      "id": 64098,
      "content": "reserved_special_token_48",
      "single_word": false,
      "lstrip": false,
      "rstrip": false,
      "normalized": false,
      "special": true
    },
    {
      "id": 64099,
      "content": "reserved_special_token_49",
      "single_word": false,
      "lstrip": false,
      "rstrip": false,
      "normalized": false,
      "special": true
    },
    {
      "id": 64100,
      "content": "reserved_special_token_50",
      "single_word": false,
      "lstrip": false,
      "rstrip": false,
      "normalized": false,
      "special": true
    },
    {
      "id": 64101,
      "content": "reserved_special_token_51",
      "single_word": false,
      "lstrip": false,
      "rstrip": false,
      "normalized": false,
      "special": true
    },
    {
      "id": 64102,
      "content": "reserved_special_token_52",
      "single_word": false,
      "lstrip": false,
      "rstrip": false,
      "normalized": false,
      "special": true
    },
    {
      "id": 64103,
      "content": "reserved_special_token_53",
      "single_word": false,
      "lstrip": false,
      "rstrip": false,
      "normalized": false,
      "special": true
    },
    {
      "id": 64104,
      "content": "reserved_special_token_54",
      "single_word": false,
      "lstrip": false,
      "rstrip": false,
      "normalized": false,
      "special": true
    },
    {
      "id": 64105,
      "content": "reserved_special_token_55",
      "single_word": false,
      "lstrip": false,
      "rstrip": false,
      "normalized": false,
      "special": true
    },
    {
      "id": 64106,
      "content": "reserved_special_token_56",
      "single_word": false,
      "lstrip": false,
      "rstrip": false,
      "normalized": false,
      "special": true
    },
    {
      "id": 64107,
      "content": "reserved_special_token_57",
      "single_word": false,
      "lstrip": false,
      "rstrip": false,
      "normalized": false,
      "special": true
    },
    {
      "id": 64108,
      "content": "reserved_special_token_58",
      "single_word": false,
      "lstrip": false,
      "rstrip": false,
      "normalized": false,
      "special": true
    },
    {
      "id": 64109,
      "content": "reserved_special_token_59",
      "single_word": false,
      "lstrip": false,
      "rstrip": false,
      "normalized": false,
      "special": true
    },
    {
      "id": 64110,
      "content": "reserved_special_token_60",
      "single_word": false,
      "lstrip": false,
      "rstrip": false,
      "normalized": false,
      "special": true
    },
    {
      "id": 64111,
      "content": "reserved_special_token_61",
      "single_word": false,
      "lstrip": false,
      "rstrip": false,
      "normalized": false,
      "special": true
    },
    {
      "id": 64112,
      "content": "reserved_special_token_62",
      "single_word": false,
      "lstrip": false,
      "rstrip": false,
      "normalized": false,
      "special": true
    },
    {
      "id": 64113,
      "content": "reserved_special_token_63",
      "single_word": false,
      "lstrip": false,
      "rstrip": false,
      "normalized": false,
      "special": true
    },
    {
      "id": 64114,
      "content": "reserved_special_token_64",
      "single_word": false,
      "lstrip": false,
      "rstrip": false,
      "normalized": false,
      "special": true
    },
    {
      "id": 64115,
      "content": "reserved_special_token_65",
      "single_word": false,
      "lstrip": false,
      "rstrip": false,
      "normalized": false,
      "special": true
    },
    {
      "id": 64116,
      "content": "reserved_special_token_66",
      "single_word": false,
      "lstrip": false,
      "rstrip": false,
      "normalized": false,
      "special": true
    },
    {
      "id": 64117,
      "content": "reserved_special_token_67",
      "single_word": false,
      "lstrip": false,
      "rstrip": false,
      "normalized": false,
      "special": true
    },
    {
      "id": 64118,
      "content": "reserved_special_token_68",
      "single_word": false,
      "lstrip": false,
      "rstrip": false,
      "normalized": false,
      "special": true
    },
    {
      "id": 64119,
      "content": "reserved_special_token_69",
      "single_word": false,
      "lstrip": false,
      "rstrip": false,
      "normalized": false,
      "special": true
    },
    {
      "id": 64120,
      "content": "reserved_special_token_70",
      "single_word": false,
      "lstrip": false,
      "rstrip": false,
      "normalized": false,
      "special": true
    },
    {
      "id": 64121,
      "content": "reserved_special_token_71",
      "single_word": false,
      "lstrip": false,
      "rstrip": false,
      "normalized": false,
      "special": true
    },
    {
      "id": 64122,
      "content": "reserved_special_token_72",
      "single_word": false,
      "lstrip": false,
      "rstrip": false,
      "normalized": false,
      "special": true
    },
    {
      "id": 64123,
      "content": "reserved_special_token_73",
      "single_word": false,
      "lstrip": false,
      "rstrip": false,
      "normalized": false,
      "special": true
    },
    {
      "id": 64124,
      "content": "reserved_special_token_74",
      "single_word": false,
      "lstrip": false,
      "rstrip": false,
      "normalized": false,
      "special": true
    },
    {
      "id": 64125,
      "content": "reserved_special_token_75",
      "single_word": false,
      "lstrip": false,
      "rstrip": false,
      "normalized": false,
      "special": true
    },
    {
      "id": 64126,
      "content": "reserved_special_token_76",
      "single_word": false,
      "lstrip": false,
      "rstrip": false,
      "normalized": false,
      "special": true
    },
    {
      "id": 64127,
      "content": "reserved_special_token_77",
      "single_word": false,
      "lstrip": false,
      "rstrip": false,
      "normalized": false,
      "special": true
    },
    {
      "id": 64128,
      "content": "reserved_special_token_78",
      "single_word": false,
      "lstrip": false,
      "rstrip": false,
      "normalized": false,
      "special": true
    },
    {
      "id": 64129,
      "content": "reserved_special_token_79",
      "single_word": false,
      "lstrip": false,
      "rstrip": false,
      "normalized": false,
      "special": true
    },
    {
      "id": 64130,
      "content": "reserved_special_token_80",
      "single_word": false,
      "lstrip": false,
      "rstrip": false,
      "normalized": false,
      "special": true
    },
    {
      "id": 64131,
      "content": "reserved_special_token_81",
      "single_word": false,
      "lstrip": false,
      "rstrip": false,
      "normalized": false,
      "special": true
    },
    {
      "id": 64132,
      "content": "reserved_special_token_82",
      "single_word": false,
      "lstrip": false,
      "rstrip": false,
      "normalized": false,
      "special": true
    },
    {
      "id": 64133,
      "content": "reserved_special_token_83",
      "single_word": false,
      "lstrip": false,
      "rstrip": false,
      "normalized": false,
      "special": true
    },
    {
      "id": 64134,
      "content": "reserved_special_token_84",
      "single_word": false,
      "lstrip": false,
      "rstrip": false,
      "normalized": false,
      "special": true
    },
    {
      "id": 64135,
      "content": "reserved_special_token_85",
      "single_word": false,
      "lstrip": false,
      "rstrip": false,
      "normalized": false,
      "special": true
    },
    {
      "id": 64136,
      "content": "reserved_special_token_86",
      "single_word": false,
      "lstrip": false,
      "rstrip": false,
      "normalized": false,
      "special": true
    },
    {
      "id": 64137,
      "content": "reserved_special_token_87",
      "single_word": false,
      "lstrip": false,
      "rstrip": false,
      "normalized": false,
      "special": true
    },
    {
      "id": 64138,
      "content": "reserved_special_token_88",
      "single_word": false,
      "lstrip": false,
      "rstrip": false,
      "normalized": false,
      "special": true
    },
    {
      "id": 64139,
      "content": "reserved_special_token_89",
      "single_word": false,
      "lstrip": false,
      "rstrip": false,
      "normalized": false,
      "special": true
    },
    {
      "id": 64140,
      "content": "reserved_special_token_90",
      "single_word": false,
      "lstrip": false,
      "rstrip": false,
      "normalized": false,
      "special": true
    },
    {
      "id": 64141,
      "content": "reserved_special_token_91",
      "single_word": false,
      "lstrip": false,
      "rstrip": false,
      "normalized": false,
      "special": true
    },
    {
      "id": 64142,
      "content": "reserved_special_token_92",
      "single_word": false,
      "lstrip": false,
      "rstrip": false,
      "normalized": false,
      "special": true
    },
    {
      "id": 64143,
      "content": "reserved_special_token_93",
      "single_word": false,
      "lstrip": false,
      "rstrip": false,
      "normalized": false,
      "special": true
    },
    {
      "id": 64144,
      "content": "reserved_special_token_94",
      "single_word": false,
      "lstrip": false,
      "rstrip": false,
      "normalized": false,
      "special": true
    },
    {
      "id": 64145,
      "content": "reserved_special_token_95",
      "single_word": false,
      "lstrip": false,
      "rstrip": false,
      "normalized": false,
      "special": true
    },
    {
      "id": 64146,
      "content": "reserved_special_token_96",
      "single_word": false,
      "lstrip": false,
      "rstrip": false,
      "normalized": false,
      "special": true
    },
    {
      "id": 64147,
      "content": "reserved_special_token_97",
      "single_word": false,
      "lstrip": false,
      "rstrip": false,
      "normalized": false,
      "special": true
    },
    {
      "id": 64148,
      "content": "reserved_special_token_98",
      "single_word": false,
      "lstrip": false,
      "rstrip": false,
      "normalized": false,
      "special": true
    },
    {
      "id": 64149,
      "content": "reserved_special_token_99",
      "single_word": false,
      "lstrip": false,
      "rstrip": false,
      "normalized": false,
      "special": true
    },
    {
      "id": 64150,
      "content": "reserved_special_token_100",
      "single_word": false,
      "lstrip": false,
      "rstrip": false,
      "normalized": false,
      "special": true
    },
    {
      "id": 64151,
      "content": "reserved_special_token_101",
      "single_word": false,
      "lstrip": false,
      "rstrip": false,
      "normalized": false,
      "special": true
    },
    {
      "id": 64152,
      "content": "reserved_special_token_102",
      "single_word": false,
      "lstrip": false,
      "rstrip": false,
      "normalized": false,
      "special": true
    },
    {
      "id": 64153,
      "content": "reserved_special_token_103",
      "single_word": false,
      "lstrip": false,
      "rstrip": false,
      "normalized": false,
      "special": true
    },
    {
      "id": 64154,
      "content": "reserved_special_token_104",
      "single_word": false,
      "lstrip": false,
      "rstrip": false,
      "normalized": false,
      "special": true
    },
    {
      "id": 64155,
      "content": "reserved_special_token_105",
      "single_word": false,
      "lstrip": false,
      "rstrip": false,
      "normalized": false,
      "special": true
    },
    {
      "id": 64156,
      "content": "reserved_special_token_106",
      "single_word": false,
      "lstrip": false,
      "rstrip": false,
      "normalized": false,
      "special": true
    },
    {
      "id": 64157,
      "content": "reserved_special_token_107",
      "single_word": false,
      "lstrip": false,
      "rstrip": false,
      "normalized": false,
      "special": true
    },
    {
      "id": 64158,
      "content": "reserved_special_token_108",
      "single_word": false,
      "lstrip": false,
      "rstrip": false,
      "normalized": false,
      "special": true
    },
    {
      "id": 64159,
      "content": "reserved_special_token_109",
      "single_word": false,
      "lstrip": false,
      "rstrip": false,
      "normalized": false,
      "special": true
    },
    {
      "id": 64160,
      "content": "reserved_special_token_110",
      "single_word": false,
      "lstrip": false,
      "rstrip": false,
      "normalized": false,
      "special": true
    },
    {
      "id": 64161,
      "content": "reserved_special_token_111",
      "single_word": false,
      "lstrip": false,
      "rstrip": false,
      "normalized": false,
      "special": true
    },
    {
      "id": 64162,
      "content": "reserved_special_token_112",
      "single_word": false,
      "lstrip": false,
      "rstrip": false,
      "normalized": false,
      "special": true
    },
    {
      "id": 64163,
      "content": "reserved_special_token_113",
      "single_word": false,
      "lstrip": false,
      "rstrip": false,
      "normalized": false,
      "special": true
    },
    {
      "id": 64164,
      "content": "reserved_special_token_114",
      "single_word": false,
      "lstrip": false,
      "rstrip": false,
      "normalized": false,
      "special": true
    },
    {
      "id": 64165,
      "content": "reserved_special_token_115",
      "single_word": false,
      "lstrip": false,
      "rstrip": false,
      "normalized": false,
      "special": true
    },
    {
      "id": 64166,
      "content": "reserved_special_token_116",
      "single_word": false,
      "lstrip": false,
      "rstrip": false,
      "normalized": false,
      "special": true
    },
    {
      "id": 64167,
      "content": "reserved_special_token_117",
      "single_word": false,
      "lstrip": false,
      "rstrip": false,
      "normalized": false,
      "special": true
    },
    {
      "id": 64168,
      "content": "reserved_special_token_118",
      "single_word": false,
      "lstrip": false,
      "rstrip": false,
      "normalized": false,
      "special": true
    },
    {
      "id": 64169,
      "content": "reserved_special_token_119",
      "single_word": false,
      "lstrip": false,
      "rstrip": false,
      "normalized": false,
      "special": true
    },
    {
      "id": 64170,
      "content": "reserved_special_token_120",
      "single_word": false,
      "lstrip": false,
      "rstrip": false,
      "normalized": false,
      "special": true
    },
    {
      "id": 64171,
      "content": "reserved_special_token_121",
      "single_word": false,
      "lstrip": false,
      "rstrip": false,
      "normalized": false,
      "special": true
    },
    {
      "id": 64172,
      "content": "reserved_special_token_122",
      "single_word": false,
      "lstrip": false,
      "rstrip": false,
      "normalized": false,
      "special": true
    },
    {
      "id": 64173,
      "content": "reserved_special_token_123",
      "single_word": false,
      "lstrip": false,
      "rstrip": false,
      "normalized": false,
      "special": true
    },
    {
      "id": 64174,
      "content": "reserved_special_token_124",
      "single_word": false,
      "lstrip": false,
      "rstrip": false,
      "normalized": false,
      "special": true
    },
    {
      "id": 64175,
      "content": "reserved_special_token_125",
      "single_word": false,
      "lstrip": false,
      "rstrip": false,
      "normalized": false,
      "special": true
    },
    {
      "id": 64176,
      "content": "reserved_special_token_126",
      "single_word": false,
      "lstrip": false,
      "rstrip": false,
      "normalized": false,
      "special": true
    },
    {
      "id": 64177,
      "content": "reserved_special_token_127",
      "single_word": false,
      "lstrip": false,
      "rstrip": false,
      "normalized": false,
      "special": true
    },
    {
      "id": 64178,
      "content": "reserved_special_token_128",
      "single_word": false,
      "lstrip": false,
      "rstrip": false,
      "normalized": false,
      "special": true
    },
    {
      "id": 64179,
      "content": "reserved_special_token_129",
      "single_word": false,
      "lstrip": false,
      "rstrip": false,
      "normalized": false,
      "special": true
    },
    {
      "id": 64180,
      "content": "reserved_special_token_130",
      "single_word": false,
      "lstrip": false,
      "rstrip": false,
      "normalized": false,
      "special": true
    },
    {
      "id": 64181,
      "content": "reserved_special_token_131",
      "single_word": false,
      "lstrip": false,
      "rstrip": false,
      "normalized": false,
      "special": true
    },
    {
      "id": 64182,
      "content": "reserved_special_token_132",
      "single_word": false,
      "lstrip": false,
      "rstrip": false,
      "normalized": false,
      "special": true
    },
    {
      "id": 64183,
      "content": "reserved_special_token_133",
      "single_word": false,
      "lstrip": false,
      "rstrip": false,
      "normalized": false,
      "special": true
    },
    {
      "id": 64184,
      "content": "reserved_special_token_134",
      "single_word": false,
      "lstrip": false,
      "rstrip": false,
      "normalized": false,
      "special": true
    },
    {
      "id": 64185,
      "content": "reserved_special_token_135",
      "single_word": false,
      "lstrip": false,
      "rstrip": false,
      "normalized": false,
      "special": true
    },
    {
      "id": 64186,
      "content": "reserved_special_token_136",
      "single_word": false,
      "lstrip": false,
      "rstrip": false,
      "normalized": false,
      "special": true
    },
    {
      "id": 64187,
      "content": "reserved_special_token_137",
      "single_word": false,
      "lstrip": false,
      "rstrip": false,
      "normalized": false,
      "special": true
    },
    {
      "id": 64188,
      "content": "reserved_special_token_138",
      "single_word": false,
      "lstrip": false,
      "rstrip": false,
      "normalized": false,
      "special": true
    },
    {
      "id": 64189,
      "content": "reserved_special_token_139",
      "single_word": false,
      "lstrip": false,
      "rstrip": false,
      "normalized": false,
      "special": true
    },
    {
      "id": 64190,
      "content": "reserved_special_token_140",
      "single_word": false,
      "lstrip": false,
      "rstrip": false,
      "normalized": false,
      "special": true
    },
    {
      "id": 64191,
      "content": "reserved_special_token_141",
      "single_word": false,
      "lstrip": false,
      "rstrip": false,
      "normalized": false,
      "special": true
    },
    {
      "id": 64192,
      "content": "reserved_special_token_142",
      "single_word": false,
      "lstrip": false,
      "rstrip": false,
      "normalized": false,
      "special": true
    },
    {
      "id": 64193,
      "content": "reserved_special_token_143",
      "single_word": false,
      "lstrip": false,
      "rstrip": false,
      "normalized": false,
      "special": true
    },
    {
      "id": 64194,
      "content": "reserved_special_token_144",
      "single_word": false,
      "lstrip": false,
      "rstrip": false,
      "normalized": false,
      "special": true
    },
    {
      "id": 64195,
      "content": "reserved_special_token_145",
      "single_word": false,
      "lstrip": false,
      "rstrip": false,
      "normalized": false,
      "special": true
    },
    {
      "id": 64196,
      "content": "reserved_special_token_146",
      "single_word": false,
      "lstrip": false,
      "rstrip": false,
      "normalized": false,
      "special": true
    },
    {
      "id": 64197,
      "content": "reserved_special_token_147",
      "single_word": false,
      "lstrip": false,
      "rstrip": false,
      "normalized": false,
      "special": true
    },
    {
      "id": 64198,
      "content": "reserved_special_token_148",
      "single_word": false,
      "lstrip": false,
      "rstrip": false,
      "normalized": false,
      "special": true
    },
    {
      "id": 64199,
      "content": "reserved_special_token_149",
      "single_word": false,
      "lstrip": false,
      "rstrip": false,
      "normalized": false,
      "special": true
    },
    {
      "id": 64200,
      "content": "reserved_special_token_150",
      "single_word": false,
      "lstrip": false,
      "rstrip": false,
      "normalized": false,
      "special": true
    },
    {
      "id": 64201,
      "content": "reserved_special_token_151",
      "single_word": false,
      "lstrip": false,
      "rstrip": false,
      "normalized": false,
      "special": true
    },
    {
      "id": 64202,
      "content": "reserved_special_token_152",
      "single_word": false,
      "lstrip": false,
      "rstrip": false,
      "normalized": false,
      "special": true
    },
    {
      "id": 64203,
      "content": "reserved_special_token_153",
      "single_word": false,
      "lstrip": false,
      "rstrip": false,
      "normalized": false,
      "special": true
    },
    {
      "id": 64204,
      "content": "reserved_special_token_154",
      "single_word": false,
      "lstrip": false,
      "rstrip": false,
      "normalized": false,
      "special": true
    },
    {
      "id": 64205,
      "content": "reserved_special_token_155",
      "single_word": false,
      "lstrip": false,
      "rstrip": false,
      "normalized": false,
      "special": true
    },
    {
      "id": 64206,
      "content": "reserved_special_token_156",
      "single_word": false,
      "lstrip": false,
      "rstrip": false,
      "normalized": false,
      "special": true
    },
    {
      "id": 64207,
      "content": "reserved_special_token_157",
      "single_word": false,
      "lstrip": false,
      "rstrip": false,
      "normalized": false,
      "special": true
    },
    {
      "id": 64208,
      "content": "reserved_special_token_158",
      "single_word": false,
      "lstrip": false,
      "rstrip": false,
      "normalized": false,
      "special": true
    },
    {
      "id": 64209,
      "content": "reserved_special_token_159",
      "single_word": false,
      "lstrip": false,
      "rstrip": false,
      "normalized": false,
      "special": true
    },
    {
      "id": 64210,
      "content": "reserved_special_token_160",
      "single_word": false,
      "lstrip": false,
      "rstrip": false,
      "normalized": false,
      "special": true
    },
    {
      "id": 64211,
      "content": "reserved_special_token_161",
      "single_word": false,
      "lstrip": false,
      "rstrip": false,
      "normalized": false,
      "special": true
    },
    {
      "id": 64212,
      "content": "reserved_special_token_162",
      "single_word": false,
      "lstrip": false,
      "rstrip": false,
      "normalized": false,
      "special": true
    },
    {
      "id": 64213,
      "content": "reserved_special_token_163",
      "single_word": false,
      "lstrip": false,
      "rstrip": false,
      "normalized": false,
      "special": true
    },
    {
      "id": 64214,
      "content": "reserved_special_token_164",
      "single_word": false,
      "lstrip": false,
      "rstrip": false,
      "normalized": false,
      "special": true
    },
    {
      "id": 64215,
      "content": "reserved_special_token_165",
      "single_word": false,
      "lstrip": false,
      "rstrip": false,
      "normalized": false,
      "special": true
    },
    {
      "id": 64216,
      "content": "reserved_special_token_166",
      "single_word": false,
      "lstrip": false,
      "rstrip": false,
      "normalized": false,
      "special": true
    },
    {
      "id": 64217,
      "content": "reserved_special_token_167",
      "single_word": false,
      "lstrip": false,
      "rstrip": false,
      "normalized": false,
      "special": true
    },
    {
      "id": 64218,
      "content": "reserved_special_token_168",
      "single_word": false,
      "lstrip": false,
      "rstrip": false,
      "normalized": false,
      "special": true
    },
    {
      "id": 64219,
      "content": "reserved_special_token_169",
      "single_word": false,
      "lstrip": false,
      "rstrip": false,
      "normalized": false,
      "special": true
    },
    {
      "id": 64220,
      "content": "reserved_special_token_170",
      "single_word": false,
      "lstrip": false,
      "rstrip": false,
      "normalized": false,
      "special": true
    },
    {
      "id": 64221,
      "content": "reserved_special_token_171",
      "single_word": false,
      "lstrip": false,
      "rstrip": false,
      "normalized": false,
      "special": true
    },
    {
      "id": 64222,
      "content": "reserved_special_token_172",
      "single_word": false,
      "lstrip": false,
      "rstrip": false,
      "normalized": false,
      "special": true
    },
    {
      "id": 64223,
      "content": "reserved_special_token_173",
      "single_word": false,
      "lstrip": false,
      "rstrip": false,
      "normalized": false,
      "special": true
    },
    {
      "id": 64224,
      "content": "reserved_special_token_174",
      "single_word": false,
      "lstrip": false,
      "rstrip": false,
      "normalized": false,
      "special": true
    },
    {
      "id": 64225,
      "content": "reserved_special_token_175",
      "single_word": false,
      "lstrip": false,
      "rstrip": false,
      "normalized": false,
      "special": true
    },
    {
      "id": 64226,
      "content": "reserved_special_token_176",
      "single_word": false,
      "lstrip": false,
      "rstrip": false,
      "normalized": false,
      "special": true
    },
    {
      "id": 64227,
      "content": "reserved_special_token_177",
      "single_word": false,
      "lstrip": false,
      "rstrip": false,
      "normalized": false,
      "special": true
    },
    {
      "id": 64228,
      "content": "reserved_special_token_178",
      "single_word": false,
      "lstrip": false,
      "rstrip": false,
      "normalized": false,
      "special": true
    },
    {
      "id": 64229,
      "content": "reserved_special_token_179",
      "single_word": false,
      "lstrip": false,
      "rstrip": false,
      "normalized": false,
      "special": true
    },
    {
      "id": 64230,
      "content": "reserved_special_token_180",
      "single_word": false,
      "lstrip": false,
      "rstrip": false,
      "normalized": false,
      "special": true
    },
    {
      "id": 64231,
      "content": "reserved_special_token_181",
      "single_word": false,
      "lstrip": false,
      "rstrip": false,
      "normalized": false,
      "special": true
    },
    {
      "id": 64232,
      "content": "reserved_special_token_182",
      "single_word": false,
      "lstrip": false,
      "rstrip": false,
      "normalized": false,
      "special": true
    },
    {
      "id": 64233,
      "content": "reserved_special_token_183",
      "single_word": false,
      "lstrip": false,
      "rstrip": false,
      "normalized": false,
      "special": true
    },
    {
      "id": 64234,
      "content": "reserved_special_token_184",
      "single_word": false,
      "lstrip": false,
      "rstrip": false,
      "normalized": false,
      "special": true
    },
    {
      "id": 64235,
      "content": "reserved_special_token_185",
      "single_word": false,
      "lstrip": false,
      "rstrip": false,
      "normalized": false,
      "special": true
    },
    {
      "id": 64236,
      "content": "reserved_special_token_186",
      "single_word": false,
      "lstrip": false,
      "rstrip": false,
      "normalized": false,
      "special": true
    },
    {
      "id": 64237,
      "content": "reserved_special_token_187",
      "single_word": false,
      "lstrip": false,
      "rstrip": false,
      "normalized": false,
      "special": true
    },
    {
      "id": 64238,
      "content": "reserved_special_token_188",
      "single_word": false,
      "lstrip": false,
      "rstrip": false,
      "normalized": false,
      "special": true
    },
    {
      "id": 64239,
      "content": "reserved_special_token_189",
      "single_word": false,
      "lstrip": false,
      "rstrip": false,
      "normalized": false,
      "special": true
    },
    {
      "id": 64240,
      "content": "reserved_special_token_190",
      "single_word": false,
      "lstrip": false,
      "rstrip": false,
      "normalized": false,
      "special": true
    },
    {
      "id": 64241,
      "content": "reserved_special_token_191",
      "single_word": false,
      "lstrip": false,
      "rstrip": false,
      "normalized": false,
      "special": true
    },
    {
      "id": 64242,
      "content": "reserved_special_token_192",
      "single_word": false,
      "lstrip": false,
      "rstrip": false,
      "normalized": false,
      "special": true
    },
    {
      "id": 64243,
      "content": "reserved_special_token_193",
      "single_word": false,
      "lstrip": false,
      "rstrip": false,
      "normalized": false,
      "special": true
    },
    {
      "id": 64244,
      "content": "reserved_special_token_194",
      "single_word": false,
      "lstrip": false,
      "rstrip": false,
      "normalized": false,
      "special": true
    },
    {
      "id": 64245,
      "content": "reserved_special_token_195",
      "single_word": false,
      "lstrip": false,
      "rstrip": false,
      "normalized": false,
      "special": true
    },
    {
      "id": 64246,
      "content": "reserved_special_token_196",
      "single_word": false,
      "lstrip": false,
      "rstrip": false,
      "normalized": false,
      "special": true
    },
    {
      "id": 64247,
      "content": "reserved_special_token_197",
      "single_word": false,
      "lstrip": false,
      "rstrip": false,
      "normalized": false,
      "special": true
    },
    {
      "id": 64248,
      "content": "reserved_special_token_198",
      "single_word": false,
      "lstrip": false,
      "rstrip": false,
      "normalized": false,
      "special": true
    },
    {
      "id": 64249,
      "content": "reserved_special_token_199",
      "single_word": false,
      "lstrip": false,
      "rstrip": false,
      "normalized": false,
      "special": true
    },
    {
      "id": 64250,
      "content": "reserved_special_token_200",
      "single_word": false,
      "lstrip": false,
      "rstrip": false,
      "normalized": false,
      "special": true
    },
    {
      "id": 64251,
      "content": "reserved_special_token_201",
      "single_word": false,
      "lstrip": false,
      "rstrip": false,
      "normalized": false,
      "special": true
    },
    {
      "id": 64252,
      "content": "reserved_special_token_202",
      "single_word": false,
      "lstrip": false,
      "rstrip": false,
      "normalized": false,
      "special": true
    },
    {
      "id": 64253,
      "content": "reserved_special_token_203",
      "single_word": false,
      "lstrip": false,
      "rstrip": false,
      "normalized": false,
      "special": true
    },
    {
      "id": 64254,
      "content": "<|python_tag|>",
      "single_word": false,
      "lstrip": false,
      "rstrip": false,
      "normalized": false,
      "special": false
    },
    {
      "id": 64255,
      "content": "reserved_special_token_205",
      "single_word": false,
      "lstrip": false,
      "rstrip": false,
      "normalized": false,
      "special": true
    }
  ],
  "normalizer": {
    "type": "NFC"
  },
  "pre_tokenizer": {
    "type": "Sequence",
    "pretokenizers": [
      {
        "type": "Split",
        "pattern": {
          "Regex": "(?i:'s|'t|'re|'ve|'m|'ll|'d)|[^\\r\\n\\p{L}\\p{N}]?(?:\\p{L}|\\p{M}|\\u200C|\\u200D)+|\\p{N}{1,3}| ?[^\\s\\p{L}\\p{N}]+[\\r\\n]*|\\s*[\\r\\n]+|\\s+(?!\\S)|\\s+"
        },
        "behavior": "Isolated",
        "invert": false
      },
      {
        "type": "ByteLevel",
        "add_prefix_space": false,
        "trim_offsets": true,
        "use_regex": false
      }
    ]
  },
  "post_processor": {
    "type": "ByteLevel",
    "add_prefix_space": false,
    "trim_offsets": false,
    "use_regex": false
  },
  "decoder": {
    "type": "ByteLevel",
    "add_prefix_space": true,
    "trim_offsets": true,
    "use_regex": true
  },
  "model": {
    "type": "BPE",
    "dropout": null,
    "unk_token": null,
    "continuing_subword_prefix": "",
    "end_of_word_suffix": "",
    "fuse_unk": false,
    "byte_fallback": false,
    "ignore_merges": false,
    "vocab": {
      "<|begin_of_text|>": 0,
      "<|endoftext|>": 1,
      "!": 2,
      "\"": 3,
      "#": 4,
      "$": 5,
      "%": 6,
      "&": 7,
      "'": 8,
      "(": 9,
      ")": 10,
      "*": 11,
      "+": 12,
      ",": 13,
      "-": 14,
      ".": 15,
      "/": 16,
      "0": 17,
      "1": 18,
      "2": 19,
      "3": 20,
      "4": 21,
      "5": 22,
      "6": 23,
      "7": 24,
      "8": 25,
      "9": 26,
      ":": 27,
      ";": 28,
      "<": 29,
      "=": 30,
      ">": 31,
      "?": 32,
      "@": 33,
      "A": 34,
      "B": 35,
      "C": 36,
      "D": 37,
      "E": 38,
      "F": 39,
      "G": 40,
      "H": 41,
      "I": 42,
      "J": 43,
      "K": 44,
      "L": 45,
      "M": 46,
      "N": 47,
      "O": 48,
      "P": 49,
      "Q": 50,
      "R": 51,
      "S": 52,
      "T": 53,
      "U": 54,
      "V": 55,
      "W": 56,
      "X": 57,
      "Y": 58,
      "Z": 59,
      "[": 60,
      "\\": 61,
      "]": 62,
      "^": 63,
      "_": 64,
      "`": 65,
      "a": 66,
      "b": 67,
      "c": 68,
      "d": 69,
      "e": 70,
      "f": 71,
      "g": 72,
      "h": 73,
      "i": 74,
      "j": 75,
      "k": 76,
      "l": 77,
      "m": 78,
      "n": 79,
      "o": 80,
      "p": 81,
      "q": 82,
      "r": 83,
      "s": 84,
      "t": 85,
      "u": 86,
      "v": 87,
      "w": 88,
      "x": 89,
      "y": 90,
      "z": 91,
      "{": 92,
      "|": 93,
      "}": 94,
      "~": 95,
      "¡": 96,
      "¢": 97,
      "£": 98,
      "¤": 99,
      "¥": 100,
      "¦": 101,
      "§": 102,
      "¨": 103,
      "©": 104,
      "ª": 105,
      "«": 106,
      "¬": 107,
      "®": 108,
      "¯": 109,
      "°": 110,
      "±": 111,
      "²": 112,
      "³": 113,
      "´": 114,
      "µ": 115,
      "¶": 116,
      "·": 117,
      "¸": 118,
      "¹": 119,
      "º": 120,
      "»": 121,
      "¼": 122,
      "½": 123,
      "¾": 124,
      "¿": 125,
      "À": 126,
      "Á": 127,
      "Â": 128,
      "Ã": 129,
      "Ä": 130,
      "Å": 131,
      "Æ": 132,
      "Ç": 133,
      "È": 134,
      "É": 135,
      "Ê": 136,
      "Ë": 137,
      "Ì": 138,
      "Í": 139,
      "Î": 140,
      "Ï": 141,
      "Ð": 142,
      "Ñ": 143,
      "Ò": 144,
      "Ó": 145,
      "Ô": 146,
      "Õ": 147,
      "Ö": 148,
      "×": 149,
      "Ø": 150,
      "Ù": 151,
      "Ú": 152,
      "Û": 153,
      "Ü": 154,
      "Ý": 155,
      "Þ": 156,
      "ß": 157,
      "à": 158,
      "á": 159,
      "â": 160,
      "ã": 161,
      "ä": 162,
      "å": 163,
      "æ": 164,
      "ç": 165,
      "è": 166,
      "é": 167,
      "ê": 168,
      "ë": 169,
      "ì": 170,
      "í": 171,
      "î": 172,
      "ï": 173,
      "ð": 174,
      "ñ": 175,
      "ò": 176,
      "ó": 177,
      "ô": 178,
      "õ": 179,
      "ö": 180,
      "÷": 181,
      "ø": 182,
      "ù": 183,
      "ú": 184,
      "û": 185,
      "ü": 186,
      "ý": 187,
      "þ": 188,
      "ÿ": 189,
      "Ā": 190,
      "ā": 191,
      "Ă": 192,
      "ă": 193,
      "Ą": 194,
      "ą": 195,
      "Ć": 196,
      "ć": 197,
      "Ĉ": 198,
      "ĉ": 199,
      "Ċ": 200,
      "ċ": 201,
      "Č": 202,
      "č": 203,
      "Ď": 204,
      "ď": 205,
      "Đ": 206,
      "đ": 207,
      "Ē": 208,
      "ē": 209,
      "Ĕ": 210,
      "ĕ": 211,
      "Ė": 212,
      "ė": 213,
      "Ę": 214,
      "ę": 215,
      "Ě": 216,
      "ě": 217,
      "Ĝ": 218,
      "ĝ": 219,
      "Ğ": 220,
      "ğ": 221,
      "Ġ": 222,
      "ġ": 223,
      "Ģ": 224,
      "ģ": 225,
      "Ĥ": 226,
      "ĥ": 227,
      "Ħ": 228,
      "ħ": 229,
      "Ĩ": 230,
      "ĩ": 231,
      "Ī": 232,
      "ī": 233,
      "Ĭ": 234,
      "ĭ": 235,
      "Į": 236,
      "į": 237,
      "İ": 238,
      "ı": 239,
      "Ĳ": 240,
      "ĳ": 241,
      "Ĵ": 242,
      "ĵ": 243,
      "Ķ": 244,
      "ķ": 245,
      "ĸ": 246,
      "Ĺ": 247,
      "ĺ": 248,
      "Ļ": 249,
      "ļ": 250,
      "Ľ": 251,
      "ľ": 252,
      "Ŀ": 253,
      "ŀ": 254,
      "Ł": 255,
      "ł": 256,
      "Ń": 257,
      "ĠĠ": 258,
      "Ø§": 259,
      "ÙĦ": 260,
      "à¤": 261,
      "in": 262,
      "Ġt": 263,
      "ĠĠĠĠ": 264,
      "Ġa": 265,
      "er": 266,
      "ĠØ": 267,
      "ÙĬ": 268,
      "Ùħ": 269,
      "on": 270,
      "Ø§ÙĦ": 271,
      "en": 272,
      "ÙĪ": 273,
      "es": 274,
      "ÙĨ": 275,
      "Ø±": 276,
      "Ġs": 277,
      "at": 278,
      "or": 279,
      "ĠØ§ÙĦ": 280,
      "an": 281,
      "he": 282,
      "Ø§Ø": 283,
      "re": 284,
      "Ġc": 285,
      "it": 286,
      "Ġp": 287,
      "al": 288,
      "ar": 289,
      "Ġd": 290,
      "is": 291,
      "ou": 292,
      "à¦": 293,
      "Ġthe": 294,
      "Ø©": 295,
      "Ġm": 296,
      "Ġf": 297,
      "Ġw": 298,
      "Øª": 299,
      "à´": 300,
      "ing": 301,
      "Ġà¤": 302,
      "Ġb": 303,
      "à¥": 304,
      "le": 305,
      "Ġo": 306,
      "Ø¯": 307,
      "ed": 308,
      "ic": 309,
      "Ġan": 310,
      "ĠĠĠĠĠĠĠĠ": 311,
      "as": 312,
      "Ùģ": 313,
      "ion": 314,
      "Ùĩ": 315,
      "Ġin": 316,
      "ĠØ§ÙĦØ": 317,
      "om": 318,
      "ÙĤ": 319,
      "ent": 320,
      "Ġ\"": 321,
      "ĠÙħ": 322,
      "el": 323,
      "Ø¨": 324,
      "Ġto": 325,
      "ĠĠĠ": 326,
      "Ùĥ": 327,
      "Ġand": 328,
      "Ġof": 329,
      "et": 330,
      "Ġn": 331,
      "Ø¹": 332,
      "il": 333,
      "Ġl": 334,
      "Ġh": 335,
      "ro": 336,
      "Ø³": 337,
      "\":": 338,
      "st": 339,
      "ĠÙĪ": 340,
      "ãģ": 341,
      "ct": 342,
      "am": 343,
      "ĠS": 344,
      "id": 345,
      "00": 346,
      "Ġth": 347,
      "Ġe": 348,
      "un": 349,
      "ĠC": 350,
      "ĠT": 351,
      ".Ċ": 352,
      "im": 353,
      "ĠA": 354,
      "Ġg": 355,
      "ur": 356,
      "Ġy": 357,
      "ol": 358,
      "ĠØ¨": 359,
      "ad": 360,
      "ch": 361,
      "àµ": 362,
      ",Ċ": 363,
      "ØŃ": 364,
      "us": 365,
      "ot": 366,
      "ig": 367,
      "Ġre": 368,
      "ÛĮ": 369,
      "ve": 370,
      "ay": 371,
      "ĠI": 372,
      "ut": 373,
      "à¤¾": 374,
      "ce": 375,
      "20": 376,
      "ĠM": 377,
      "ĠP": 378,
      "ul": 379,
      "ag": 380,
      "Ø§Øª": 381,
      "Ġde": 382,
      "Ġ(": 383,
      "ation": 384,
      "ĠÙģ": 385,
      "ir": 386,
      "os": 387,
      "Ġfor": 388,
      "ĠÙĦ": 389,
      "ÙĬØ©": 390,
      "ĠØª": 391,
      "--": 392,
      "Ø¬": 393,
      "Ġis": 394,
      "Ø§ÙĨ": 395,
      "est": 396,
      "ĠÐ": 397,
      "ver": 398,
      "ow": 399,
      "Ø§Ø±": 400,
      "ĠØ¹": 401,
      "em": 402,
      "Ġyou": 403,
      "Ġr": 404,
      "ĠØ£": 405,
      "ĠB": 406,
      "qu": 407,
      "ĠĠĠĠĠĠĠ": 408,
      "um": 409,
      "ĠØ§ÙĦÙħ": 410,
      "od": 411,
      "Ġon": 412,
      "ab": 413,
      "à§": 414,
      "Ùī": 415,
      "à¥ĩ": 416,
      "ly": 417,
      "Ġst": 418,
      "ĠD": 419,
      "Ð¾": 420,
      "ess": 421,
      "if": 422,
      "ter": 423,
      "à¤°": 424,
      "Ø·": 425,
      "ac": 426,
      "Øµ": 427,
      "ith": 428,
      "ap": 429,
      "Ġbe": 430,
      "Ġv": 431,
      "Ġà¦": 432,
      "th": 433,
      "ak": 434,
      "ĠR": 435,
      "Ø´": 436,
      "ĠF": 437,
      "ĠN": 438,
      "àµį": 439,
      "ers": 440,
      "Ġcon": 441,
      "Ðµ": 442,
      "ri": 443,
      "ĠL": 444,
      "Ġ-": 445,
      "ĠÙģÙĬ": 446,
      "ãĤ": 447,
      "Ġk": 448,
      "ate": 449,
      "âĢ": 450,
      "ĠE": 451,
      "Ġpro": 452,
      "Ð°": 453,
      "Ġwith": 454,
      "ĠW": 455,
      "..": 456,
      "Ø§Ùħ": 457,
      "Ġal": 458,
      "ĠH": 459,
      "ist": 460,
      "à¥į": 461,
      "ÙĬÙĨ": 462,
      "\",": 463,
      "ang": 464,
      "and": 465,
      "Ø²": 466,
      "ĠÙħÙĨ": 467,
      "Ġ=": 468,
      "¿½": 469,
      "pe": 470,
      "ï¿½": 471,
      "Ø®": 472,
      "Ġ'": 473,
      "Ú©": 474,
      "ĠĠĠĠĠĠĠĠĠĠĠĠĠĠĠĠ": 475,
      "Ġwh": 476,
      "Ġà¤ķ": 477,
      "àµįà´": 478,
      "à¤¾à¤": 479,
      "Ġthat": 480,
      "Ġas": 481,
      "ra": 482,
      "ant": 483,
      "Ġcom": 484,
      "oc": 485,
      "ĠG": 486,
      "ht": 487,
      "Ð¸": 488,
      "Ã©": 489,
      "ÑĤ": 490,
      "ĠÙĬ": 491,
      "ĊĊ": 492,
      "op": 493,
      "our": 494,
      "end": 495,
      "Ġse": 496,
      "Ġit": 497,
      "se": 498,
      "ill": 499,
      "ort": 500,
      "à¤¿": 501,
      "',": 502,
      "up": 503,
      "10": 504,
      "ment": 505,
      "ew": 506,
      "à¥Ģ": 507,
      "Ġun": 508,
      "out": 509,
      "ĠØ³": 510,
      "201": 511,
      "ãĥ": 512,
      "art": 513,
      "Ø¶": 514,
      "Ġà´": 515,
      "ine": 516,
      "à¥įà¤": 517,
      "ity": 518,
      "ere": 519,
      "ÙĦÙī": 520,
      "Ø§Ø³": 521,
      "Ð½": 522,
      "ÙĬØ±": 523,
      "Ġor": 524,
      "Ġex": 525,
      "Ä±": 526,
      ")Ċ": 527,
      "à¤Ĥ": 528,
      "],": 529,
      "pl": 530,
      "iv": 531,
      "oun": 532,
      "ĠO": 533,
      "Ġat": 534,
      "Ø£": 535,
      "Ġare": 536,
      "ÙĪØ±": 537,
      "ore": 538,
      "rom": 539,
      "Ñģ": 540,
      "à¦¾": 541,
      "ain": 542,
      "ÙĪÙĦ": 543,
      "ĠÙĥ": 544,
      "ĠØ¥": 545,
      "à¤¿à¤": 546,
      "ÑĢ": 547,
      "iz": 548,
      "ÙĪÙĨ": 549,
      "----": 550,
      "Ø§Ø¨": 551,
      "'s": 552,
      "te": 553,
      "Ð¾Ð": 554,
      "ĠÙĨ": 555,
      "Ġqu": 556,
      "Ø§Ø¯": 557,
      "ies": 558,
      "ue": 559,
      "ub": 560,
      "ÙĩØ§": 561,
      "Ġ{": 562,
      "ff": 563,
      "Ġle": 564,
      "ud": 565,
      "og": 566,
      "19": 567,
      "ĠØŃ": 568,
      "ãĢ": 569,
      "ĠÚ©": 570,
      "Ø«": 571,
      "ame": 572,
      "12": 573,
      "ĠØ§ÙĦØª": 574,
      "ĠØ§ÙĦØ£": 575,
      "ive": 576,
      "ial": 577,
      "ip": 578,
      "ok": 579,
      "ction": 580,
      ";Ċ": 581,
      "ust": 582,
      "ure": 583,
      "ĠØ¯": 584,
      "ĠThe": 585,
      "ĠĠĠĠĠĠĠĠĠĠĠ": 586,
      "ia": 587,
      "ĠÙĪØ§ÙĦ": 588,
      "Ø°": 589,
      "Ġ[": 590,
      "ik": 591,
      "Ġhe": 592,
      "Ġen": 593,
      "ell": 594,
      "à¥ĭ": 595,
      "ight": 596,
      "à§ĩ": 597,
      "ard": 598,
      "ost": 599,
      "ĉĉ": 600,
      "ie": 601,
      "ind": 602,
      "à¦¾à¦": 603,
      "Ġyour": 604,
      "age": 605,
      "\",Ċ": 606,
      "ld": 607,
      "ĠJ": 608,
      "11": 609,
      "000": 610,
      "pt": 611,
      "ass": 612,
      "Ġch": 613,
      "ĠIn": 614,
      "ĠÙĤ": 615,
      "Ġj": 616,
      "Ġha": 617,
      "Ø±ÙĬ": 618,
      "ĠØ¬": 619,
      "Ø§Ø¡": 620,
      "int": 621,
      "ĠU": 622,
      "Ġwe": 623,
      "ĠØ±": 624,
      "Ġus": 625,
      "ĠĠĠĠĠ": 626,
      "all": 627,
      "15": 628,
      "ÙĦÙĬ": 629,
      "ib": 630,
      "ĠØ§ÙĦØ¹": 631,
      "à´¿": 632,
      "ĠK": 633,
      "per": 634,
      "Ġby": 635,
      "port": 636,
      "ĠV": 637,
      "ack": 638,
      "com": 639,
      "ï¼": 640,
      "Ø§Ø¦": 641,
      "ĠÙĩ": 642,
      "ast": 643,
      "Ġfrom": 644,
      "à¤¨": 645,
      "ice": 646,
      "Ø§Ø¹": 647,
      "able": 648,
      "Ġcan": 649,
      "Ġthis": 650,
      "ä¸": 651,
      "ex": 652,
      "Ġsh": 653,
      "Ġtr": 654,
      "Ûģ": 655,
      "ÛĴ": 656,
      "ect": 657,
      "14": 658,
      "Ġsa": 659,
      "Ġpl": 660,
      "are": 661,
      "Ġpr": 662,
      "16": 663,
      "orm": 664,
      ":Ċ": 665,
      "ile": 666,
      "Ġnot": 667,
      "99": 668,
      ",\"": 669,
      "13": 670,
      "\",\"": 671,
      "ans": 672,
      "ĠØ¹ÙĦÙī": 673,
      "ide": 674,
      "ear": 675,
      "ime": 676,
      "202": 677,
      "Øº": 678,
      "],[": 679,
      "ĠØ´": 680,
      "ire": 681,
      "Ġla": 682,
      "pr": 683,
      "\":\"": 684,
      "à¤ķ": 685,
      "ÙĬØ¯": 686,
      "cl": 687,
      "//": 688,
      "Ġad": 689,
      "ult": 690,
      "ĠÙĦÙĦ": 691,
      "18": 692,
      "Ġhave": 693,
      "Ġà¤¸": 694,
      "25": 695,
      "Ġwas": 696,
      "Ġcl": 697,
      "ber": 698,
      "à´¿à´": 699,
      "one": 700,
      "##": 701,
      "à§į": 702,
      "à§įà¦": 703,
      "Ġ}": 704,
      "ong": 705,
      "30": 706,
      "Ð»": 707,
      "ah": 708,
      "ated": 709,
      "ich": 710,
      "__": 711,
      "Ġim": 712,
      "Ø§Ùģ": 713,
      "ord": 714,
      "Ġ,": 715,
      "ĠTh": 716,
      "17": 717,
      "ite": 718,
      "ail": 719,
      "Ġà¤¹": 720,
      "ep": 721,
      "du": 722,
      "con": 723,
      "ï¿½ï¿½": 724,
      "cc": 725,
      "Ġper": 726,
      "Ġres": 727,
      "ĠØ®": 728,
      "à¦¿": 729,
      "ĠØ§ÙĦØ³": 730,
      "Ġ|": 731,
      "ĠÃ": 732,
      "act": 733,
      "ĠØ§ÙĦØŃ": 734,
      "ĠĠĠĠĠĠĠĠĠĠĠĠĠĠĠ": 735,
      "ob": 736,
      "ÙĪÙħ": 737,
      "Ġab": 738,
      "24": 739,
      "ign": 740,
      "ance": 741,
      "ork": 742,
      "Ġwill": 743,
      "ĠSt": 744,
      "Ġcomp": 745,
      "Ø§ÙĤ": 746,
      "ge": 747,
      "Ġall": 748,
      "Ġ{Ċ": 749,
      "Ġdo": 750,
      "ata": 751,
      "Ġar": 752,
      "àµģ": 753,
      "ase": 754,
      "ens": 755,
      "ach": 756,
      "23": 757,
      "ook": 758,
      "ions": 759,
      "ous": 760,
      "ome": 761,
      "Ġcont": 762,
      "Ø³Øª": 763,
      "der": 764,
      "Ġne": 765,
      "à¤¤": 766,
      "av": 767,
      "Ø§ØŃ": 768,
      "to": 769,
      "âĢĻ": 770,
      "elf": 771,
      "Ã¼": 772,
      "ence": 773,
      "ÙĬÙĦ": 774,
      "form": 775,
      "Ġà¤®": 776,
      "ical": 777,
      "ĠY": 778,
      "ry": 779,
      "de": 780,
      "urn": 781,
      "Ġap": 782,
      "\"Ċ": 783,
      "ty": 784,
      "ace": 785,
      "Ø¸": 786,
      "gr": 787,
      "à¦°": 788,
      "ary": 789,
      "Ñĥ": 790,
      "ould": 791,
      "ĠâĢ": 792,
      "Ġdes": 793,
      "22": 794,
      "Ġme": 795,
      "Ø±Ø¨": 796,
      "fer": 797,
      "ug": 798,
      "ÙĪØ¯": 799,
      "her": 800,
      "50": 801,
      "ï¼Į": 802,
      "ĠØ£ÙĨ": 803,
      "so": 804,
      "erv": 805,
      "Ðº": 806,
      "Ø¦": 807,
      "ode": 808,
      "ations": 809,
      "ark": 810,
      "Ġdi": 811,
      "à¤¸": 812,
      "28": 813,
      "26": 814,
      "--------": 815,
      "Ġà¤ª": 816,
      "ake": 817,
      "à¥Ī": 818,
      "à´¾": 819,
      "ĠØµ": 820,
      "àµģà´": 821,
      "Ġif": 822,
      "ĠØ§": 823,
      "ual": 824,
      "**": 825,
      "Ġhas": 826,
      "Ġup": 827,
      "ÙħØ§": 828,
      "ound": 829,
      "vel": 830,
      "Ø§Ø¬": 831,
      "ree": 832,
      "40": 833,
      "ĠAn": 834,
      "Ġ:": 835,
      "27": 836,
      "33": 837,
      "Ġ.": 838,
      "_t": 839,
      "ne": 840,
      "ood": 841,
      "ents": 842,
      "Ġi": 843,
      "Ġout": 844,
      "ount": 845,
      "29": 846,
      "pro": 847,
      "Ġ$": 848,
      "ther": 849,
      "Ġ\\": 850,
      "Ġpar": 851,
      "{\"": 852,
      "ck": 853,
      "ãĢĤ": 854,
      "ĠØ¨Ø§ÙĦ": 855,
      "The": 856,
      "ĠÙħØ¹": 857,
      "In": 858,
      "ĠRe": 859,
      "ll": 860,
      "à¤¹": 861,
      "à´¾à´": 862,
      "ick": 863,
      "ull": 864,
      "Ġmore": 865,
      "Ø§Ø³Øª": 866,
      "ÙĬØ§": 867,
      "à¥¤": 868,
      "io": 869,
      "ition": 870,
      "ÙħÙĨ": 871,
      "ĠØ§ÙĦØ¨": 872,
      "Ġman": 873,
      "ĠØ§ÙĦØ¥": 874,
      "oug": 875,
      "ĠØ§ÙĦØ¬": 876,
      "==": 877,
      "Ø¨Ø±": 878,
      "à¥ģ": 879,
      "ont": 880,
      "ĠØ¹ÙĨ": 881,
      "à¦¿à¦": 882,
      "ÙħÙĦ": 883,
      "Ġ<": 884,
      "ĠCh": 885,
      "Ġsu": 886,
      "),": 887,
      "ps": 888,
      "eng": 889,
      "ov": 890,
      "à¤²": 891,
      "ĠØ§ÙĦÙĤ": 892,
      "Ġso": 893,
      "vers": 894,
      "Ñı": 895,
      "06": 896,
      "very": 897,
      "Ñĭ": 898,
      "Ġdis": 899,
      "05": 900,
      "ØªØ±": 901,
      "ru": 902,
      "ors": 903,
      "ÙĩÙħ": 904,
      ");Ċ": 905,
      "36": 906,
      "ER": 907,
      "enc": 908,
      "çļ": 909,
      "ĠØ§ÙĦÙĨ": 910,
      "line": 911,
      "Ð¼": 912,
      "ple": 913,
      "35": 914,
      "37": 915,
      "own": 916,
      "=\"": 917,
      "ert": 918,
      "ft": 919,
      "çļĦ": 920,
      "45": 921,
      "Ð²": 922,
      "Ġpre": 923,
      "ÙĨØ§": 924,
      "LL": 925,
      "äº": 926,
      "ĠØ§ÙĦØ¯": 927,
      "Ø¹Ø¯": 928,
      "200": 929,
      "ian": 930,
      "Ġ&": 931,
      "08": 932,
      "ÙĪÙĤ": 933,
      "ĠØ§ÙĦØ´": 934,
      "Ã§": 935,
      "Ġque": 936,
      "Ġgr": 937,
      "Ġbut": 938,
      "32": 939,
      "reat": 940,
      "ãģ®": 941,
      "ose": 942,
      "Ġte": 943,
      "iew": 944,
      "07": 945,
      "Ø±ÙĪ": 946,
      "à¤®": 947,
      "Ġnew": 948,
      "},": 949,
      "ÙĬØ³": 950,
      "AA": 951,
      "Ġem": 952,
      "ĠØ§ÙĦÙģ": 953,
      "Ú¯": 954,
      "...": 955,
      "à¥ĩà¤Ĥ": 956,
      "ãĢģ": 957,
      "val": 958,
      "ĠØ·": 959,
      "anc": 960,
      "46": 961,
      "Ġ*": 962,
      "Ø¥": 963,
      "Ġpart": 964,
      "Ø¨ÙĬ": 965,
      "Ù¾": 966,
      "ock": 967,
      "</": 968,
      "cre": 969,
      "Ġget": 970,
      "Ø§Ø²": 971,
      "Ġro": 972,
      "38": 973,
      "ÅŁ": 974,
      "yst": 975,
      "Ġtheir": 976,
      "Ġet": 977,
      "47": 978,
      "Ġret": 979,
      "ath": 980,
      "ĠÐ¿": 981,
      "Ø±Ø©": 982,
      "ÑĮ": 983,
      "48": 984,
      "à¥įà¤°": 985,
      "à§ĩà¦": 986,
      "ays": 987,
      "sp": 988,
      "get": 989,
      "01": 990,
      "ory": 991,
      "Ġng": 992,
      "Úº": 993,
      "39": 994,
      "ari": 995,
      "ung": 996,
      "name": 997,
      "Ġam": 998,
      "ings": 999,
      "Ġel": 1000,
      "Ġinter": 1001,
      "ek": 1002,
      "Ġ#": 1003,
      "lo": 1004,
      "res": 1005,
      "09": 1006,
      "ey": 1007,
      "ÙĦÙħ": 1008,
      "à¤¾à¤°": 1009,
      "ØªÙħ": 1010,
      "Ġag": 1011,
      "ink": 1012,
      "az": 1013,
      "ĠØ¢": 1014,
      "Ġà¤¹à¥Ī": 1015,
      "Ġone": 1016,
      "ĠĊ": 1017,
      "Ġsp": 1018,
      "\\\"": 1019,
      "Ġà¤ķà¥ĩ": 1020,
      "Ġour": 1021,
      "IN": 1022,
      "ĠĠĠĠĠĠĠĠĠĠĠĠĠĠĠĠĠĠĠ": 1023,
      "Ġwhich": 1024,
      "49": 1025,
      "Ġno": 1026,
      "ÙĬÙħ": 1027,
      "ÙĦÙĥ": 1028,
      "ough": 1029,
      "ese": 1030,
      "oy": 1031,
      "Ð´": 1032,
      "21": 1033,
      "ank": 1034,
      "ĠØ¥ÙĦÙī": 1035,
      "ely": 1036,
      "'t": 1037,
      "ild": 1038,
      "ĠØ§ÙĦØ±": 1039,
      "Ø§Øµ": 1040,
      "igh": 1041,
      "ÙĦØ©": 1042,
      "ject": 1043,
      ".com": 1044,
      "ade": 1045,
      "ĠÙħØŃ": 1046,
      "ize": 1047,
      "ike": 1048,
      "aw": 1049,
      "æľ": 1050,
      "tr": 1051,
      "Ġthey": 1052,
      "ĠØ§ÙĦØµ": 1053,
      "66": 1054,
      "ale": 1055,
      "oll": 1056,
      "ish": 1057,
      "à¤ª": 1058,
      "ĠĠĠĠĠĠĠĠĠ": 1059,
      "ax": 1060,
      "ating": 1061,
      "ÑģÑĤ": 1062,
      "co": 1063,
      "ict": 1064,
      "Ġwork": 1065,
      "Ġà¤¬": 1066,
      "Ø±Ùĥ": 1067,
      "ĠØ§ÙĨ": 1068,
      "ĠØ§ÙĦÙĥ": 1069,
      "://": 1070,
      "Ġna": 1071,
      "ates": 1072,
      "ULL": 1073,
      "sh": 1074,
      "eb": 1075,
      "ven": 1076,
      "Ġabout": 1077,
      "ystem": 1078,
      "Ġind": 1079,
      "ient": 1080,
      "Ġalso": 1081,
      "Ġtime": 1082,
      "04": 1083,
      "Ø§Ø±Ø©": 1084,
      "Ġ+": 1085,
      "ec": 1086,
      "ons": 1087,
      "Ġ/": 1088,
      "eth": 1089,
      "Ġest": 1090,
      "ãģĦ": 1091,
      "57": 1092,
      "iss": 1093,
      "åı": 1094,
      "ier": 1095,
      "Ø§Ùĩ": 1096,
      "ss": 1097,
      "ĠØ§ÙĦØ®": 1098,
      "čĊ": 1099,
      "ater": 1100,
      "row": 1101,
      "ove": 1102,
      "Ø¹Ø©": 1103,
      "34": 1104,
      "Ġsc": 1105,
      "ä»": 1106,
      "Ġgo": 1107,
      "ÙĨØ¯": 1108,
      "à¤Ĺ": 1109,
      "pec": 1110,
      "Ġà¤ľ": 1111,
      "Ġ},Ċ": 1112,
      "Ġmy": 1113,
      "uk": 1114,
      "Ã¡": 1115,
      "),Ċ": 1116,
      "####": 1117,
      "ubl": 1118,
      "irst": 1119,
      "old": 1120,
      "ng": 1121,
      "we": 1122,
      "ĠIt": 1123,
      "ph": 1124,
      "56": 1125,
      "les": 1126,
      "Ġà¤¨": 1127,
      "Ġany": 1128,
      "','": 1129,
      "lect": 1130,
      "ener": 1131,
      "erm": 1132,
      "Ã³": 1133,
      "Ġsup": 1134,
      "ific": 1135,
      "100": 1136,
      "Ġacc": 1137,
      "Ø¯Ùħ": 1138,
      "ĠÛģ": 1139,
      "mer": 1140,
      "åħ": 1141,
      "ĠØ§ÙĦÙĦ": 1142,
      "ĠÐ²": 1143,
      "Ġbu": 1144,
      ").": 1145,
      "ĠUn": 1146,
      "led": 1147,
      "àµĨ": 1148,
      "Ġreturn": 1149,
      "03": 1150,
      "58": 1151,
      "Ä±n": 1152,
      "ØŃØ¯": 1153,
      "ise": 1154,
      "Ñĩ": 1155,
      "ann": 1156,
      "02": 1157,
      "Ġint": 1158,
      "Ġself": 1159,
      "Ġfe": 1160,
      "ally": 1161,
      "Ø°Ø§": 1162,
      "å¤": 1163,
      "à¦¼": 1164,
      "ÙĬÙģ": 1165,
      "ange": 1166,
      "ext": 1167,
      "Ġpe": 1168,
      "ix": 1169,
      "_m": 1170,
      "ga": 1171,
      "ond": 1172,
      "Ġyear": 1173,
      "Ø¤": 1174,
      "ĠPro": 1175,
      "any": 1176,
      "Ø§Ø¶": 1177,
      "44": 1178,
      "rit": 1179,
      "Ø¹ÙĦ": 1180,
      "Ġwho": 1181,
      "Ġhis": 1182,
      "ES": 1183,
      "ool": 1184,
      "Ġmay": 1185,
      "Ġover": 1186,
      "Ġother": 1187,
      "ef": 1188,
      "Ġprodu": 1189,
      "Ġstr": 1190,
      "sc": 1191,
      "que": 1192,
      "Ġass": 1193,
      "ices": 1194,
      "Ġclass": 1195,
      "ÙĤØ©": 1196,
      "ement": 1197,
      "Ġoff": 1198,
      "clud": 1199,
      "59": 1200,
      "Ġ`": 1201,
      "ÙĦØ§": 1202,
      "Ġang": 1203,
      "ĠÑģ": 1204,
      "Ġ]": 1205,
      "me": 1206,
      "¨àµįà´": 1207,
      "ĠØº": 1208,
      "ĠCom": 1209,
      "tt": 1210,
      "und": 1211,
      "ys": 1212,
      "Ġneed": 1213,
      "Ġdel": 1214,
      "ĠWe": 1215,
      "Ø§Ø®": 1216,
      "vent": 1217,
      "\\n": 1218,
      "ÐµÐ½": 1219,
      "Ġbl": 1220,
      "88": 1221,
      "ãģ§": 1222,
      "ÙĬÙĪ": 1223,
      "pos": 1224,
      "Th": 1225,
      "Ø¨Ø§Ø±": 1226,
      "ments": 1227,
      "Ø§Ø·": 1228,
      "77": 1229,
      "()": 1230,
      "Ġche": 1231,
      "],[-": 1232,
      "Ġval": 1233,
      "cess": 1234,
      "type": 1235,
      "ics": 1236,
      "put": 1237,
      "aus": 1238,
      "Ġz": 1239,
      "ww": 1240,
      "31": 1241,
      "Ġher": 1242,
      "AT": 1243,
      "Ġadd": 1244,
      "Ġà¤ħ": 1245,
      "Ġà¤²": 1246,
      "ÄŁ": 1247,
      "ĠThis": 1248,
      "Ġà¤¦": 1249,
      "à¦¨": 1250,
      "Ġprov": 1251,
      "55": 1252,
      "rib": 1253,
      "par": 1254,
      "Ġcol": 1255,
      "ĠØ§Ø³Øª": 1256,
      "Ġcons": 1257,
      "Ġà¤®à¥ĩà¤Ĥ": 1258,
      "Ø§Ø´": 1259,
      "oss": 1260,
      "Ġà¤µ": 1261,
      "Ġsome": 1262,
      "ãģĹ": 1263,
      "à´¤": 1264,
      "alse": 1265,
      "\\u": 1266,
      "_c": 1267,
      "Ġits": 1268,
      "NT": 1269,
      "ĠÙ¾": 1270,
      "tern": 1271,
      "Ġwere": 1272,
      "olog": 1273,
      "à¤¦": 1274,
      "Ġmod": 1275,
      "ype": 1276,
      "å®": 1277,
      "Ġdef": 1278,
      "ÙĬØ¹": 1279,
      "åĪ": 1280,
      "red": 1281,
      "Ø±Ùģ": 1282,
      "ÛĮÚº": 1283,
      "à¥Ĥ": 1284,
      "Ġco": 1285,
      "ption": 1286,
      "its": 1287,
      "ÃŃ": 1288,
      "Ġkn": 1289,
      "Ġwhen": 1290,
      "urr": 1291,
      "Ġbeen": 1292,
      "Ġlike": 1293,
      "Ġnum": 1294,
      "ins": 1295,
      "ÙĬØª": 1296,
      "ÙĪØ³": 1297,
      "ãģ«": 1298,
      "iel": 1299,
      "ĠÂ": 1300,
      "li": 1301,
      "à¤µ": 1302,
      "ÙħØ±": 1303,
      "Ġes": 1304,
      "ÙĬØ§Øª": 1305,
      "¯à¦¼": 1306,
      "ular": 1307,
      "Ġent": 1308,
      "ÑĢÐ°": 1309,
      "ÙħØ©": 1310,
      "Ø¨Ø©": 1311,
      "ĠWh": 1312,
      "ĠâĢĵ": 1313,
      "au": 1314,
      "ash": 1315,
      "ĠÐ½": 1316,
      "?Ċ": 1317,
      "Ġserv": 1318,
      "ĠÙĪØª": 1319,
      "Ġph": 1320,
      "Ġac": 1321,
      "Ġthere": 1322,
      ">Ċ": 1323,
      "oint": 1324,
      "ĠĠĠĠĠĠĠĠĠĠĠĠĠ": 1325,
      "ĠÙħØ§": 1326,
      "Ġinto": 1327,
      "Ġcomm": 1328,
      "xt": 1329,
      "}Ċ": 1330,
      "ures": 1331,
      "fter": 1332,
      "Ġbet": 1333,
      "view": 1334,
      "pect": 1335,
      "Ġà¤°": 1336,
      "Ġ}Ċ": 1337,
      "Ġhel": 1338,
      "atch": 1339,
      "Ġact": 1340,
      "ØĮ": 1341,
      "Ġdif": 1342,
      "amp": 1343,
      "Ø§ÙĦÙħ": 1344,
      "98": 1345,
      "ÙĥÙĨ": 1346,
      "app": 1347,
      "arg": 1348,
      "AL": 1349,
      "Ġreg": 1350,
      "ower": 1351,
      "96": 1352,
      "AR": 1353,
      "hed": 1354,
      "ÙĪØ¬": 1355,
      "ãģ¦": 1356,
      "97": 1357,
      "Ġset": 1358,
      "als": 1359,
      "Ġrec": 1360,
      "air": 1361,
      "ĠSh": 1362,
      "self": 1363,
      "Ã£": 1364,
      "à¥įà¤¯": 1365,
      "erson": 1366,
      "Ð·": 1367,
      "ä½": 1368,
      "Ġve": 1369,
      "çĶ": 1370,
      "à¤¾à¤¨": 1371,
      "Ġhow": 1372,
      "ķàµįà´": 1373,
      "ÙħØ¯": 1374,
      "...Ċ": 1375,
      "ility": 1376,
      "let": 1377,
      "Ã¶": 1378,
      ",-": 1379,
      "wo": 1380,
      "ÛĮÙĨ": 1381,
      "ational": 1382,
      "Ú¾": 1383,
      "Ġthem": 1384,
      "ble": 1385,
      "ĠØ§ÙĦØ°": 1386,
      "Ð¾Ð²": 1387,
      "htt": 1388,
      "à¥ĭà¤Ĥ": 1389,
      "ĠÐ¸": 1390,
      "ities": 1391,
      "ied": 1392,
      "ner": 1393,
      "Ġob": 1394,
      "ya": 1395,
      "ĠSe": 1396,
      "Ġdata": 1397,
      "ĠØ²": 1398,
      "ress": 1399,
      "ople": 1400,
      "Ġmem": 1401,
      "ON": 1402,
      "ÙĤØ¯": 1403,
      "86": 1404,
      "Ġop": 1405,
      "ãģĻ": 1406,
      "ãģ¨": 1407,
      "åĲ": 1408,
      "----------------": 1409,
      "ĠNULL": 1410,
      "Re": 1411,
      "à¦¾à¦°": 1412,
      "ĠÃł": 1413,
      "87": 1414,
      "Ġjust": 1415,
      "ai": 1416,
      "ages": 1417,
      "Ġthan": 1418,
      "Ġpara": 1419,
      "ĠAr": 1420,
      "ĠØ§ÙĦÙĪ": 1421,
      "Ġtra": 1422,
      "\\x": 1423,
      "itt": 1424,
      "day": 1425,
      "Ġwhat": 1426,
      "Ã£o": 1427,
      "ues": 1428,
      "iness": 1429,
      "Ġrel": 1430,
      "Ġuse": 1431,
      "oth": 1432,
      "},{\"": 1433,
      "ĠØ¨ÙĨ": 1434,
      "Ġbr": 1435,
      "uch": 1436,
      "(\"": 1437,
      "ĠØªØ¹": 1438,
      "St": 1439,
      "Ø¨ÙĦ": 1440,
      "ible": 1441,
      "ãģª": 1442,
      "Ġinclud": 1443,
      "ãĢĤĊ": 1444,
      "arket": 1445,
      "_d": 1446,
      "Ġmin": 1447,
      "ased": 1448,
      "Ġfirst": 1449,
      "ublic": 1450,
      "ÙħÙĪ": 1451,
      "ĠØ¯Ø±": 1452,
      "ÙĦØ³": 1453,
      "Ġfin": 1454,
      "à§ģ": 1455,
      ")ĊĊ": 1456,
      "Ġeff": 1457,
      "ãģŁ": 1458,
      "orn": 1459,
      "fl": 1460,
      "ĉĉĉĉ": 1461,
      "ĠHe": 1462,
      "('": 1463,
      "):Ċ": 1464,
      "!Ċ": 1465,
      "à¤°à¥įà¤": 1466,
      "76": 1467,
      "Ġmake": 1468,
      "ctions": 1469,
      "ern": 1470,
      "Ġà¤ķà¥Ģ": 1471,
      "ÙĥØ±": 1472,
      "ÙĨÙĬ": 1473,
      "da": 1474,
      "Ð¿": 1475,
      "à¥ĩà¤": 1476,
      "ts": 1477,
      "ÙĪØ¨": 1478,
      "ĠØ§ÙĦØ·": 1479,
      "ĠØ°": 1480,
      "ĠAl": 1481,
      "ada": 1482,
      "_id": 1483,
      "Ġmost": 1484,
      "41": 1485,
      "be": 1486,
      "ative": 1487,
      "Ġav": 1488,
      "ĠØ§ÙĦØªÙĬ": 1489,
      "str": 1490,
      "ÙĨØª": 1491,
      "ĠØ¨Ø±": 1492,
      "ci": 1493,
      "arn": 1494,
      "ãĤĭ": 1495,
      "Ġfl": 1496,
      "Ġhelp": 1497,
      "ethod": 1498,
      "ident": 1499,
      "Ñħ": 1500,
      "ĠÙĪØ£": 1501,
      "ox": 1502,
      "Ġexper": 1503,
      "ract": 1504,
      "Ġ[Ċ": 1505,
      "Ġlook": 1506,
      "ĠYou": 1507,
      "ma": 1508,
      "Ġser": 1509,
      "Ġsub": 1510,
      "Ġstud": 1511,
      "_s": 1512,
      "ÙĤÙĬ": 1513,
      "à´°": 1514,
      "ĠØ£ÙĪ": 1515,
      "ator": 1516,
      "ession": 1517,
      "Ġhigh": 1518,
      "Ġwould": 1519,
      "ĠÐ¾": 1520,
      "els": 1521,
      "ĠQ": 1522,
      "ID": 1523,
      "usiness": 1524,
      "Ġinv": 1525,
      "ten": 1526,
      "Ġsur": 1527,
      "ãģĮ": 1528,
      "Ø¯Ø©": 1529,
      "arch": 1530,
      "à¤¿à¤¯": 1531,
      "ÙĦÙģ": 1532,
      "42": 1533,
      "Ġà¤Ĩ": 1534,
      "ĠÙĦØ§": 1535,
      "Ġtrans": 1536,
      "ric": 1537,
      "Ġhad": 1538,
      "Ġà¦ķ": 1539,
      "RE": 1540,
      "à¤¯": 1541,
      "ĠNew": 1542,
      "Ġunder": 1543,
      "====": 1544,
      "rough": 1545,
      "Ġonly": 1546,
      "æĸ": 1547,
      "Ġatt": 1548,
      "bl": 1549,
      "Ġcar": 1550,
      "ĠDe": 1551,
      "ful": 1552,
      "Ġles": 1553,
      "ĠØ¨Ùĩ": 1554,
      "ØªÙĩ": 1555,
      "Ø¯ÙĬØ¯": 1556,
      "ĠTr": 1557,
      "time": 1558,
      "velop": 1559,
      "ÙĦØ§Ùħ": 1560,
      "åľ": 1561,
      "ily": 1562,
      "ãģ¾": 1563,
      "Ø±Ø¯": 1564,
      "Ø³Ø¨": 1565,
      "Ġwell": 1566,
      "{Ċ": 1567,
      "formation": 1568,
      "Ġfun": 1569,
      "Ġx": 1570,
      "ĠØªØŃ": 1571,
      "FF": 1572,
      "oup": 1573,
      "ãĥ¼": 1574,
      "43": 1575,
      "ãĤĴ": 1576,
      "Ġil": 1577,
      "Ð¹": 1578,
      "Ø´Ø±": 1579,
      "Ġà¤ķà¥ĭ": 1580,
      "aut": 1581,
      "ãģ¯": 1582,
      "lar": 1583,
      "ÙĨØ©": 1584,
      "æĺ": 1585,
      "Ø§ÙĨÙĬ": 1586,
      "ÙĪÙģ": 1587,
      "plic": 1588,
      "Ġgu": 1589,
      "Ġmon": 1590,
      "Ã¨": 1591,
      "Ġmga": 1592,
      "Ø®Ø±": 1593,
      "gan": 1594,
      "ST": 1595,
      "ĠZ": 1596,
      "¨àµįà´¨": 1597,
      "chn": 1598,
      "Ġloc": 1599,
      "orld": 1600,
      "Ġthese": 1601,
      "\">": 1602,
      "Ġpeople": 1603,
      "Ġbest": 1604,
      "à¤¨à¥ĩ": 1605,
      "ĠLe": 1606,
      "LE": 1607,
      "Ġimport": 1608,
      "999": 1609,
      "ØµÙĦ": 1610,
      "ting": 1611,
      "ler": 1612,
      "Ġda": 1613,
      "****": 1614,
      "ms": 1615,
      "min": 1616,
      "Ġma": 1617,
      "]Ċ": 1618,
      "ÙĦØ§ÙĦ": 1619,
      "ĠÙħØ¬": 1620,
      "Ġaut": 1621,
      "Ġinst": 1622,
      "Ã¤": 1623,
      "Ġdet": 1624,
      "è¿": 1625,
      "set": 1626,
      "ĠÚ©ÛĮ": 1627,
      "ØªÙĬ": 1628,
      "ķàµįà´ķ": 1629,
      "ĠÃ©": 1630,
      "Ġpres": 1631,
      "ature": 1632,
      "Ø¨Ø¯": 1633,
      "ina": 1634,
      "ĠØ§ÙĦÙĬ": 1635,
      "alth": 1636,
      "of": 1637,
      "Ġsm": 1638,
      "à¤¬": 1639,
      "Ø¦ÙĬØ³": 1640,
      "Ġfind": 1641,
      "Ġrem": 1642,
      "ÙĪØ§": 1643,
      "95": 1644,
      "Ġà¦¸": 1645,
      "Ġspec": 1646,
      "ĠÚ©ÛĴ": 1647,
      "67": 1648,
      "ution": 1649,
      "ited": 1650,
      "ĠCl": 1651,
      "à¤¡": 1652,
      "Ġback": 1653,
      "ĠÐº": 1654,
      "value": 1655,
      "ause": 1656,
      "Ġsim": 1657,
      "Ġà¤ķà¤°": 1658,
      "Ð±": 1659,
      "ows": 1660,
      "ĠEx": 1661,
      "Ġtwo": 1662,
      "ask": 1663,
      "ĠAd": 1664,
      "uc": 1665,
      "Ġed": 1666,
      "ward": 1667,
      "ĠFor": 1668,
      "Ġplay": 1669,
      "Ġà¤¸à¥ĩ": 1670,
      "ĠÙħØµ": 1671,
      "fe": 1672,
      "ames": 1673,
      "Ġcr": 1674,
      "Ġpol": 1675,
      "Ġthrough": 1676,
      "wn": 1677,
      "ÑĢÐµ": 1678,
      "ØŃØ©": 1679,
      "br": 1680,
      "Ø§Ø±Ø§Øª": 1681,
      "ÙĪØ¹": 1682,
      "ÙĥØª": 1683,
      "à¦ķ": 1684,
      "ĠØ§ÙĦØ«": 1685,
      "ĠÙħØ³": 1686,
      "Ġwant": 1687,
      "ado": 1688,
      "text": 1689,
      "à¤ľ": 1690,
      "Ġevery": 1691,
      "Ġrequ": 1692,
      "Ø¯Ø±": 1693,
      "yn": 1694,
      "pp": 1695,
      "ield": 1696,
      "gram": 1697,
      "ife": 1698,
      "riv": 1699,
      "ĠÙĦÙħ": 1700,
      "Wh": 1701,
      "\":{\"": 1702,
      "ious": 1703,
      "Ġyang": 1704,
      "aking": 1705,
      "à¦²": 1706,
      "AN": 1707,
      "ĠPl": 1708,
      "Ġafter": 1709,
      "æĪ": 1710,
      "ĠØ§ÙĦÙħØª": 1711,
      "Ġperson": 1712,
      "uring": 1713,
      "read": 1714,
      "Ġà¦¬": 1715,
      "å°": 1716,
      "Ġshe": 1717,
      "Ġresult": 1718,
      "Ø¬Ø±": 1719,
      "Ġvery": 1720,
      "Ġsol": 1721,
      "earch": 1722,
      "ĠØ¹ÙĦÙĬ": 1723,
      "Ø§Ø©": 1724,
      "Ġdiffer": 1725,
      "ider": 1726,
      "Ġmed": 1727,
      "ÙħØ§ÙĦ": 1728,
      "à´¯": 1729,
      "Ġà¤¤": 1730,
      "att": 1731,
      "Ġmen": 1732,
      "Ġ>": 1733,
      "ĠĠĠĠĠĠĠĠĠĠĠĠĠĠĠĠĠĠĠĠĠĠĠĠĠĠĠĠĠĠĠĠ": 1734,
      "....": 1735,
      "ÐµÑĤ": 1736,
      "che": 1737,
      "Ø°Ùĩ": 1738,
      "ĠÙħØ´": 1739,
      "Ġthen": 1740,
      "Ġknow": 1741,
      "Ø¯ÙĬ": 1742,
      "Ġlist": 1743,
      "Ġweb": 1744,
      "ray": 1745,
      "ÙģÙĬ": 1746,
      ".p": 1747,
      "Ø³Ùħ": 1748,
      "load": 1749,
      "ä¸Ģ": 1750,
      "Ġlo": 1751,
      "Ġà¤Ĺ": 1752,
      "Ð³": 1753,
      "uss": 1754,
      "land": 1755,
      "ital": 1756,
      "Ġproduct": 1757,
      "ines": 1758,
      "ĠÙħØª": 1759,
      "Ġund": 1760,
      "ME": 1761,
      "ÙĥÙĦ": 1762,
      "ĠÐ´": 1763,
      "78": 1764,
      "ces": 1765,
      "Ġshould": 1766,
      "Ġins": 1767,
      "urs": 1768,
      "Ġdown": 1769,
      "ave": 1770,
      "ustom": 1771,
      "Ø¹Ø±": 1772,
      "ren": 1773,
      "AC": 1774,
      "span": 1775,
      "à§ĩà¦°": 1776,
      "ets": 1777,
      ".ĊĊ": 1778,
      "ÙĪÙĬ": 1779,
      "æĹ": 1780,
      "ience": 1781,
      "àµįà´¤": 1782,
      "åĬ": 1783,
      "ĠØ«": 1784,
      "Ġ{\"": 1785,
      "_l": 1786,
      "Ø§Ø«": 1787,
      "ÙĩØ±": 1788,
      "Ġend": 1789,
      "Ġstart": 1790,
      "ruct": 1791,
      "Ġprof": 1792,
      "Ġsign": 1793,
      "tic": 1794,
      "ux": 1795,
      "ÚĨ": 1796,
      "à¤¼": 1797,
      "Ð¾Ð»": 1798,
      "Ġgood": 1799,
      "Ġonline": 1800,
      "ute": 1801,
      "68": 1802,
      "Ġà¦ª": 1803,
      "Ġà¤ī": 1804,
      "ino": 1805,
      "51": 1806,
      "ars": 1807,
      "ource": 1808,
      "Ġdu": 1809,
      "ouse": 1810,
      "-s": 1811,
      "ton": 1812,
      "ateg": 1813,
      "Ġ],Ċ": 1814,
      "Ø³ÙĬ": 1815,
      "à¤Ł": 1816,
      "ality": 1817,
      "Ġcre": 1818,
      "ĠEn": 1819,
      "à¦¤": 1820,
      "cri": 1821,
      "_p": 1822,
      "Ġtest": 1823,
      "Ġdon": 1824,
      "man": 1825,
      "Ø§Ø¯Ø©": 1826,
      "Ġ==": 1827,
      "Ġlong": 1828,
      "Ġconst": 1829,
      "ÙĬØ±Ø©": 1830,
      "Ġyears": 1831,
      "Ġke": 1832,
      "irect": 1833,
      "ĠÙĥØ§ÙĨ": 1834,
      "Ġread": 1835,
      "-b": 1836,
      "Ġwhere": 1837,
      "atic": 1838,
      "ĠÚ¯": 1839,
      "ĠØ§ÙĦÙĦÙĩ": 1840,
      "ique": 1841,
      ";ĊĊ": 1842,
      "ÛĶ": 1843,
      "à¤¿à¤ķ": 1844,
      "Ġright": 1845,
      "âĢ¦": 1846,
      "ØªØµ": 1847,
      "ced": 1848,
      "SE": 1849,
      "Ġused": 1850,
      "à§ĭ": 1851,
      "ĠØ§Ø³": 1852,
      "ref": 1853,
      "Ġcor": 1854,
      "Ġder": 1855,
      "Ġbel": 1856,
      "Ġer": 1857,
      "urrent": 1858,
      "Ġgreat": 1859,
      "ivers": 1860,
      "ĠOn": 1861,
      "ä¹": 1862,
      "aph": 1863,
      "An": 1864,
      "à¦¬": 1865,
      "ĠĠĠĠĠĠĠĠĠĠĠĠĠĠĠĠĠĠĠĠĠĠĠ": 1866,
      "ĠØ¶": 1867,
      "Ġfr": 1868,
      "af": 1869,
      "Ã³n": 1870,
      "Ð½Ð¸": 1871,
      "Ġvari": 1872,
      "ĠAnd": 1873,
      "ee": 1874,
      "ĠØ¨Ø¹Ø¯": 1875,
      "uf": 1876,
      "ta": 1877,
      "Ġtem": 1878,
      "ĠCon": 1879,
      "_f": 1880,
      "col": 1881,
      "Ġsuch": 1882,
      "def": 1883,
      "ĠÙĩØ°Ø§": 1884,
      "ĠGr": 1885,
      "âĢĿ": 1886,
      "cent": 1887,
      "Ġext": 1888,
      "https": 1889,
      "ĠÙĪÙħ": 1890,
      "kan": 1891,
      "Ġà¤ĩ": 1892,
      "iy": 1893,
      "ament": 1894,
      "Ñİ": 1895,
      "Ġsystem": 1896,
      "Ġform": 1897,
      "Ġà¤Ń": 1898,
      "IC": 1899,
      "rol": 1900,
      "oid": 1901,
      "ret": 1902,
      "Ġcould": 1903,
      "ollow": 1904,
      "ized": 1905,
      "àµĭ": 1906,
      "fore": 1907,
      "Ġsl": 1908,
      "ÙĤØ±": 1909,
      "Ķà¤°": 1910,
      "ÙĦØ¨": 1911,
      "DE": 1912,
      "Ġsaid": 1913,
      "å¹": 1914,
      "ĠÙħÙĪ": 1915,
      "åĽ": 1916,
      "Ġpag": 1917,
      "\\\\": 1918,
      "Ġver": 1919,
      "ÙĩØ¯": 1920,
      "Ù¹": 1921,
      "Ġcas": 1922,
      "Ġmany": 1923,
      "ĠBl": 1924,
      "Ġum": 1925,
      "OR": 1926,
      "åŃ": 1927,
      "num": 1928,
      "Ø·Ø©": 1929,
      "arm": 1930,
      "hip": 1931,
      "Ġdesign": 1932,
      "ĠRes": 1933,
      "org": 1934,
      "Ġà´ª": 1935,
      "ÙĤØ§ÙĦ": 1936,
      "52": 1937,
      "lease": 1938,
      "ÛĮÚ©": 1939,
      "Ġnow": 1940,
      "Ġà¤Ķà¤°": 1941,
      "ym": 1942,
      "ien": 1943,
      "AB": 1944,
      "Ġdec": 1945,
      "Ġfree": 1946,
      "ĠØ§ÙĦÙħÙĨ": 1947,
      "Ġfil": 1948,
      "à¦®": 1949,
      "ants": 1950,
      "########": 1951,
      "alk": 1952,
      "Ġapp": 1953,
      "ĠInd": 1954,
      "hor": 1955,
      "Ġay": 1956,
      "Ð¾Ð¼": 1957,
      "Ġway": 1958,
      "ger": 1959,
      "ump": 1960,
      "53": 1961,
      "Ð½Ñĭ": 1962,
      "Ġmarket": 1963,
      "Ġdevelop": 1964,
      "ÙĬØ²": 1965,
      "Ġinformation": 1966,
      "oh": 1967,
      "69": 1968,
      "Ġbusiness": 1969,
      "ample": 1970,
      "))": 1971,
      "ÛĮØ¯": 1972,
      "199": 1973,
      "ĠØ¨ÙĬÙĨ": 1974,
      "ĠIf": 1975,
      "ever": 1976,
      "Ã©s": 1977,
      "Ġvis": 1978,
      "à§įà¦°": 1979,
      "inal": 1980,
      "Ġprint": 1981,
      "add": 1982,
      "Ch": 1983,
      "Ø«Ø±": 1984,
      "Ġ__": 1985,
      "à´Ł": 1986,
      "Ġgener": 1987,
      "ÙĪØª": 1988,
      "oci": 1989,
      "OT": 1990,
      "fo": 1991,
      "ãģĭ": 1992,
      "Ð½Ð¾": 1993,
      "IT": 1994,
      "ency": 1995,
      "ĠPr": 1996,
      "Ġnull": 1997,
      "td": 1998,
      "Ø§Ùĥ": 1999,
      "ica": 2000,
      "ãĥ³": 2001,
      "cept": 2002,
      "ument": 2003,
      "Ġsee": 2004,
      "Ġusing": 2005,
      "Ð°ÑĤ": 2006,
      "à´Ĥ": 2007,
      "Ð¾Ð´": 2008,
      "ĠÙħØ±": 2009,
      "Ø¬Ùħ": 2010,
      "Ġdie": 2011,
      "ĠX": 2012,
      "ength": 2013,
      "Ġeven": 2014,
      "Ø§Ø±ÙĬ": 2015,
      "Ġbir": 2016,
      "ati": 2017,
      "ween": 2018,
      "Pro": 2019,
      "Ġter": 2020,
      "à¤¾à¤²": 2021,
      "net": 2022,
      "ĠØ§ÙĦÙħØŃ": 2023,
      "ats": 2024,
      "Ġbec": 2025,
      "Ð¸ÑĤ": 2026,
      "ĠBe": 2027,
      "54": 2028,
      "Ġcal": 2029,
      "ral": 2030,
      "ÙĪØ²": 2031,
      "ives": 2032,
      "Ġnumber": 2033,
      "éĢ": 2034,
      "'re": 2035,
      "other": 2036,
      "Ġcap": 2037,
      "Ø£ÙĨ": 2038,
      "Ġdist": 2039,
      "Ġhome": 2040,
      "atur": 2041,
      "Ġfam": 2042,
      ",'": 2043,
      "ÑĪ": 2044,
      "89": 2045,
      "uro": 2046,
      "ĠØ¥ÙĨ": 2047,
      "ush": 2048,
      "work": 2049,
      "ology": 2050,
      "cond": 2051,
      "Ġwhile": 2052,
      "Ġfalse": 2053,
      "Ġ--": 2054,
      "79": 2055,
      "à¤ļ": 2056,
      "ĠÐ¼": 2057,
      "ody": 2058,
      "Ġhere": 2059,
      "Ð¾ÑĢ": 2060,
      "ÙģØ±": 2061,
      "ED": 2062,
      "Ø®Øµ": 2063,
      "cont": 2064,
      "Ġhtt": 2065,
      "ĠØ£ÙĬ": 2066,
      "Ġmain": 2067,
      "ĠÙħØ¯": 2068,
      "à§įà¦¯": 2069,
      "way": 2070,
      "chool": 2071,
      "ÙĥÙĪÙĨ": 2072,
      "ØªØŃ": 2073,
      "Ġpost": 2074,
      "'),Ċ": 2075,
      "Ġpos": 2076,
      "Ġday": 2077,
      "Com": 2078,
      "ara": 2079,
      "ĠÙĥÙĦ": 2080,
      "ĠFr": 2081,
      "à¸": 2082,
      "amb": 2083,
      "Ġà¤ı": 2084,
      "Ø§ÙĨÙĬØ©": 2085,
      "ÙĤÙĦ": 2086,
      "æī": 2087,
      "come": 2088,
      "Ġà¤¯": 2089,
      "AD": 2090,
      "à¥ģà¤": 2091,
      "fr": 2092,
      "ĠAs": 2093,
      "Id": 2094,
      "yle": 2095,
      "yp": 2096,
      "ĠTe": 2097,
      "ÑĨ": 2098,
      "Ġmuch": 2099,
      "Ġdan": 2100,
      "åį": 2101,
      "ãģ£": 2102,
      "ailable": 2103,
      "Ø³Ø±": 2104,
      "rain": 2105,
      "ĠÑĤ": 2106,
      "><": 2107,
      "ato": 2108,
      "Ġsk": 2109,
      "Ġprocess": 2110,
      "Ġà¤ªà¤°": 2111,
      "ually": 2112,
      "Ġgl": 2113,
      "ason": 2114,
      "Ġvalue": 2115,
      "Ġeffect": 2116,
      "Ġtake": 2117,
      "Ġposs": 2118,
      "ours": 2119,
      "Ġhand": 2120,
      "ote": 2121,
      "une": 2122,
      "ãĤĤ": 2123,
      "-m": 2124,
      "Ġeach": 2125,
      "Ġprovid": 2126,
      "àµįà´Ł": 2127,
      "ait": 2128,
      "ÙĪØ§ÙĨ": 2129,
      "Ġsit": 2130,
      "Ġpass": 2131,
      "ä¼": 2132,
      "::": 2133,
      "Ġà¤ķà¤¾": 2134,
      "Ġdoes": 2135,
      "ih": 2136,
      "ÐµÐ»": 2137,
      "erg": 2138,
      "Ġresp": 2139,
      "à¥įà¤¤": 2140,
      "ÙĥØ©": 2141,
      "den": 2142,
      "ĠÙħÛĮÚº": 2143,
      "æĺ¯": 2144,
      "Ġdifferent": 2145,
      "play": 2146,
      "Ġtop": 2147,
      "ĠÙĪÙĩ": 2148,
      "-f": 2149,
      "Ġown": 2150,
      "Ġbetween": 2151,
      "ired": 2152,
      "la": 2153,
      "ĠÐ½Ð°": 2154,
      "We": 2155,
      "ama": 2156,
      "à´®": 2157,
      "ÙĪÙĦØ©": 2158,
      "Ð¶": 2159,
      "ãĤĬ": 2160,
      "Ġà´ķ": 2161,
      "Ġdem": 2162,
      "à¦¯à¦¼": 2163,
      "Ġà¤ªà¥įà¤°": 2164,
      "è¡": 2165,
      "Ø§ÛĮ": 2166,
      "asy": 2167,
      "Ġcount": 2168,
      "Ġworld": 2169,
      "ideo": 2170,
      "comm": 2171,
      ".,": 2172,
      "ters": 2173,
      "Ġincre": 2174,
      "ç»": 2175,
      "Ġnon": 2176,
      "ĠPh": 2177,
      "},\"": 2178,
      "ÙĨØ³": 2179,
      "àµĩ": 2180,
      "ÙĪÙĤØ¹": 2181,
      "500": 2182,
      "ĠAll": 2183,
      "por": 2184,
      "Ø¢": 2185,
      "ÙĪØ§Øª": 2186,
      "ĠMan": 2187,
      "Ġcent": 2188,
      "æĿ": 2189,
      "riend": 2190,
      "ĠØ³ÙĬ": 2191,
      "ĠØªÙħ": 2192,
      "Ġ...": 2193,
      "conom": 2194,
      "æķ": 2195,
      "ense": 2196,
      "itle": 2197,
      "ior": 2198,
      "ĠTo": 2199,
      "Ãª": 2200,
      "ĠØ§ÙĦÙĩ": 2201,
      "Ġreal": 2202,
      "over": 2203,
      "_b": 2204,
      "ĠUS": 2205,
      "imes": 2206,
      "äºº": 2207,
      ".s": 2208,
      "åº": 2209,
      "Ġagain": 2210,
      "Ġbo": 2211,
      "à´¿à´²": 2212,
      "Ġweek": 2213,
      "ti": 2214,
      "aj": 2215,
      "å¸": 2216,
      "ved": 2217,
      "ÙĪØ±Ø©": 2218,
      "Ġquest": 2219,
      "EN": 2220,
      "ĠØ£Ùħ": 2221,
      "Un": 2222,
      "ĠÙĩØ°Ùĩ": 2223,
      "uck": 2224,
      "è¯": 2225,
      "Name": 2226,
      "Ġmet": 2227,
      "print": 2228,
      "Ø¯Ø§": 2229,
      "ning": 2230,
      "Ã¼r": 2231,
      "ĠØ¬Ùħ": 2232,
      "Ex": 2233,
      "ince": 2234,
      "word": 2235,
      "àµģà´Ĥ": 2236,
      "å¾": 2237,
      "ÐµÑĢ": 2238,
      "date": 2239,
      "Ø±ÙĬÙĤ": 2240,
      "ness": 2241,
      "ene": 2242,
      "urch": 2243,
      "version": 2244,
      "iÃ³n": 2245,
      "ole": 2246,
      "RO": 2247,
      "ml": 2248,
      "dd": 2249,
      "Ġpartic": 2250,
      "éĩ": 2251,
      "Ġchar": 2252,
      "Ġsupport": 2253,
      "Ar": 2254,
      "Ġson": 2255,
      "Ġcle": 2256,
      "ium": 2257,
      "Ġele": 2258,
      "ross": 2259,
      "Ġprogram": 2260,
      "Ġ],": 2261,
      "ivid": 2262,
      "akes": 2263,
      "à¦¾à¦¨": 2264,
      "This": 2265,
      "EC": 2266,
      "Ġpublic": 2267,
      "64": 2268,
      "ĠØ§ÙĦØ°ÙĬ": 2269,
      "Ġbecause": 2270,
      "Ð¾Ð³": 2271,
      "ism": 2272,
      "Ġshow": 2273,
      "ision": 2274,
      "Ġname": 2275,
      "ams": 2276,
      "Ø³Ø§Ø±Ø©": 2277,
      "},Ċ": 2278,
      "Ġtechn": 2279,
      "Ġ@": 2280,
      "Ø±ÙĤ": 2281,
      "Ġcustom": 2282,
      "ĠÙĪØ§ÙĦÙħ": 2283,
      "ĠSp": 2284,
      "ery": 2285,
      "www": 2286,
      "ÙĥÙħ": 2287,
      "ĠÙĩÙĪ": 2288,
      "Ø§Ø¹Ø©": 2289,
      "Ġbefore": 2290,
      "Ø®Ø¨Ø§Ø±": 2291,
      "Ø·ÙĦ": 2292,
      "data": 2293,
      ".m": 2294,
      "ots": 2295,
      "uy": 2296,
      "ales": 2297,
      "Ø§ÙģØ©": 2298,
      "ization": 2299,
      "Ġinvest": 2300,
      "Ġmade": 2301,
      "Ġmat": 2302,
      "less": 2303,
      "Ġà¦Ĩ": 2304,
      "reg": 2305,
      "Ġlead": 2306,
      "Type": 2307,
      "ather": 2308,
      "ron": 2309,
      "_C": 2310,
      "the": 2311,
      "Ð°Ð»": 2312,
      "Ġunt": 2313,
      "à´³": 2314,
      "ÙĬØ¨": 2315,
      "Ġà¦ı": 2316,
      "ĠÛģÛĴ": 2317,
      "ror": 2318,
      "Ġequ": 2319,
      "Ġ//": 2320,
      "gin": 2321,
      "Ġdid": 2322,
      "ana": 2323,
      "}ĊĊ": 2324,
      "60": 2325,
      "SER": 2326,
      "Ġà¤ļ": 2327,
      "It": 2328,
      "Ġpoint": 2329,
      "Ġà¤¶": 2330,
      "(self": 2331,
      "Ġmag": 2332,
      "for": 2333,
      "umn": 2334,
      "->": 2335,
      "Ø±Ø¶": 2336,
      "Ġfollow": 2337,
      "åĩ": 2338,
      "ically": 2339,
      "Ġsi": 2340,
      "ãģĨ": 2341,
      "Ġpour": 2342,
      "ais": 2343,
      "ãĤĮ": 2344,
      "ĠHow": 2345,
      "Ġpor": 2346,
      ".l": 2347,
      "ĠÙĬØ¹": 2348,
      "à§Ģ": 2349,
      "abel": 2350,
      "ĠÐ¿ÑĢ": 2351,
      "ential": 2352,
      "wh": 2353,
      "ared": 2354,
      ".j": 2355,
      "oin": 2356,
      "bers": 2357,
      "Ø±Ø¨ÙĬØ©": 2358,
      ".\"": 2359,
      "Ġev": 2360,
      "Ġappro": 2361,
      "Ġoffer": 2362,
      "à¤¿à¤¤": 2363,
      "start": 2364,
      "Ġanal": 2365,
      "Ġlast": 2366,
      "ety": 2367,
      "fig": 2368,
      "ills": 2369,
      "ï¿½ï¿½ï¿½": 2370,
      "En": 2371,
      "Ġdep": 2372,
      "Ġfact": 2373,
      "ware": 2374,
      "001": 2375,
      "ccess": 2376,
      "à¤¿à¤²": 2377,
      "ape": 2378,
      "Ġpay": 2379,
      "key": 2380,
      "son": 2381,
      "Ġplace": 2382,
      "ÙĪÙĥ": 2383,
      "Ġdr": 2384,
      "ÛĮØ±": 2385,
      "Ġbeing": 2386,
      "za": 2387,
      "å¼": 2388,
      "Ø§ÙĦØ©": 2389,
      "Ġhim": 2390,
      "ĠOr": 2391,
      "ified": 2392,
      "ences": 2393,
      "-c": 2394,
      "ĠØ§Ø²": 2395,
      "Ġrun": 2396,
      "Ġà´µ": 2397,
      "Ġservice": 2398,
      "ĠØ§ÙĦÙħÙĪ": 2399,
      "AS": 2400,
      ".t": 2401,
      "ĉĉĉ": 2402,
      "Ġadv": 2403,
      "site": 2404,
      "Ġuna": 2405,
      "à´µ": 2406,
      "ĠIs": 2407,
      "Ø´Ø§Ø±": 2408,
      "Ġà¦®": 2409,
      "Ġlos": 2410,
      "NULL": 2411,
      "Ø§ÙĦÙĬ": 2412,
      "ÙĨÙĬØ©": 2413,
      "ĠØ§ÙĦÙĬÙĪÙħ": 2414,
      "Ġcommun": 2415,
      "ä¸į": 2416,
      "-d": 2417,
      "duct": 2418,
      "Cl": 2419,
      "Ġrest": 2420,
      "åľ¨": 2421,
      "Ġoper": 2422,
      "ca": 2423,
      "ãĤī": 2424,
      "ini": 2425,
      "åĨ": 2426,
      "Ġmonth": 2427,
      "ists": 2428,
      "ane": 2429,
      "Ãł": 2430,
      "è¦": 2431,
      "Ġess": 2432,
      "Tr": 2433,
      "à¦¸": 2434,
      "Ø±ÙĥØ©": 2435,
      "ser": 2436,
      "Ġreview": 2437,
      "ĠØ¹Ø§Ùħ": 2438,
      "ÙĬØ«": 2439,
      "Ġà¤¹à¥Īà¤Ĥ": 2440,
      "àµįà´°": 2441,
      "orth": 2442,
      "med": 2443,
      "Ġorgan": 2444,
      "Ð¾ÑĤ": 2445,
      "à¥įà¤Ł": 2446,
      "à¤¿à¤ı": 2447,
      "Ġsom": 2448,
      "oney": 2449,
      "press": 2450,
      "ability": 2451,
      "ploy": 2452,
      "\".": 2453,
      "Ã§Ã£o": 2454,
      "ocial": 2455,
      "Ġcost": 2456,
      "à´¤àµįà´¤": 2457,
      "Ġ%": 2458,
      "ØªØ¹": 2459,
      "right": 2460,
      "Ġfound": 2461,
      "75": 2462,
      "ĠSystem": 2463,
      "off": 2464,
      "çĽ": 2465,
      "80": 2466,
      "ĠØªÙĤ": 2467,
      "ving": 2468,
      "ĠØªÙĨ": 2469,
      "ĠÚ©Ø±": 2470,
      "ĠØ§ÙĦØ£Ùħ": 2471,
      "Ġavailable": 2472,
      "à¤¾à¤¤": 2473,
      "ify": 2474,
      "ĠØ§ÙĦØ²": 2475,
      "ĠØ§ÙĦØº": 2476,
      "ION": 2477,
      "pres": 2478,
      "Ġboth": 2479,
      "`,": 2480,
      "arget": 2481,
      "ĠNo": 2482,
      "iver": 2483,
      ".S": 2484,
      "ÐµÐ½Ð¸": 2485,
      "Ġcho": 2486,
      "ita": 2487,
      "Ġopt": 2488,
      "Ġorder": 2489,
      "Ø¡": 2490,
      "Ġut": 2491,
      "Ġcare": 2492,
      "Ġà¤¹à¥ĭ": 2493,
      "ke": 2494,
      "FA": 2495,
      "ĠØ®ÙĦØ§ÙĦ": 2496,
      "å·": 2497,
      "Ġhealth": 2498,
      "Ä±r": 2499,
      "by": 2500,
      "Ġlife": 2501,
      "ĠÐ±": 2502,
      "ĠCol": 2503,
      "Ġperform": 2504,
      "ails": 2505,
      "Ġthose": 2506,
      "Ø¹Ùħ": 2507,
      "ĠØ§ÙĦØ¹Ø§Ùħ": 2508,
      "lection": 2509,
      "Ġreport": 2510,
      "Ø±Ø§Ø¡": 2511,
      "Ġà´¸": 2512,
      "ĠÙĪØ¬": 2513,
      "ET": 2514,
      "sw": 2515,
      "rem": 2516,
      "ÙĬÙĥ": 2517,
      "à¤¿à¤¯à¤¾": 2518,
      "tain": 2519,
      "ione": 2520,
      "æľī": 2521,
      "agement": 2522,
      "ems": 2523,
      "ante": 2524,
      "Ġsite": 2525,
      "Ġpop": 2526,
      "Ġmethod": 2527,
      "ĠMar": 2528,
      "Ġelse": 2529,
      "lex": 2530,
      "à¥¤Ċ": 2531,
      "ĠÙĪØ¨": 2532,
      "Ġbook": 2533,
      "ĠMore": 2534,
      "ĠdÃ©": 2535,
      "à¤¤à¤¾": 2536,
      "enn": 2537,
      "æĢ": 2538,
      "aper": 2539,
      "ott": 2540,
      "ÙĤØª": 2541,
      "ito": 2542,
      "ãģĵ": 2543,
      "å¥": 2544,
      "itions": 2545,
      ".org": 2546,
      "ĠØ§ÙĪØ±": 2547,
      "ished": 2548,
      "Ġtrue": 2549,
      "Ġ)": 2550,
      "Ġsame": 2551,
      "Ġcompany": 2552,
      "cho": 2553,
      "Ġprote": 2554,
      "ĠINT": 2555,
      "Ġann": 2556,
      "ze": 2557,
      "ili": 2558,
      "Ġlevel": 2559,
      "ĠØªØµ": 2560,
      "ĠÙĬÙĨ": 2561,
      "Ð¾Ð¹": 2562,
      "stand": 2563,
      "Ġcontin": 2564,
      "ĠØ£Ùĥ": 2565,
      "oot": 2566,
      "è®": 2567,
      "df": 2568,
      "èĢ": 2569,
      "irl": 2570,
      "Ġdev": 2571,
      "yl": 2572,
      "ici": 2573,
      "åĮ": 2574,
      "class": 2575,
      "ĠØ§ÙĦÙħØ³": 2576,
      "ĠÙĪØ³": 2577,
      "Ġcurrent": 2578,
      "ault": 2579,
      "url": 2580,
      "ØªÙģ": 2581,
      "itch": 2582,
      "Ø¹Ø¶": 2583,
      "ĠØ¨ÙĦ": 2584,
      "Ġold": 2585,
      "Ø¹Ø¨": 2586,
      "omen": 2587,
      "ĠÙħØ·": 2588,
      "aterial": 2589,
      "iron": 2590,
      "'Ċ": 2591,
      "å¤§": 2592,
      "ä¸Ń": 2593,
      "code": 2594,
      "()Ċ": 2595,
      "Ġgame": 2596,
      "ĠBr": 2597,
      "ano": 2598,
      "Ġproble": 2599,
      "cription": 2600,
      "ØµØ±": 2601,
      "ores": 2602,
      "ĠQu": 2603,
      "ply": 2604,
      "Ġâ": 2605,
      "à´²": 2606,
      "Ġthink": 2607,
      "Ġà¤¨à¥ĩ": 2608,
      "uh": 2609,
      "go": 2610,
      "à´¿à´¯": 2611,
      "Ġopen": 2612,
      "ĠÙĪØ²": 2613,
      "ÙĥØ§ÙĨ": 2614,
      "Ġcond": 2615,
      "Ġà¦¹": 2616,
      "Ø¹ÙĪØ¯": 2617,
      "Ø¬ÙĦ": 2618,
      "gen": 2619,
      "ĠØ§Ùħ": 2620,
      "Ġein": 2621,
      "Ġexperience": 2622,
      "IS": 2623,
      "à¤¾à¤®": 2624,
      "Ġbre": 2625,
      "mp": 2626,
      "ÙĪÙī": 2627,
      ".n": 2628,
      "US": 2629,
      "sub": 2630,
      "ALU": 2631,
      "Ġproper": 2632,
      "Ġdisc": 2633,
      "ining": 2634,
      "Ġfunction": 2635,
      "ĠØ§Ø¨": 2636,
      "ional": 2637,
      "ĠÙħØ®": 2638,
      "ĠCont": 2639,
      "Ġà¦¨": 2640,
      "ards": 2641,
      "ÙĦÙĬÙħ": 2642,
      "ØŃÙĨ": 2643,
      "Ġ!": 2644,
      "IL": 2645,
      "iment": 2646,
      "à´¨": 2647,
      "{\\": 2648,
      "ÙĪÙĬØ©": 2649,
      "å¯": 2650,
      "ertain": 2651,
      "à¤¹à¥Ģ": 2652,
      "rist": 2653,
      "ĠÙħÛĮ": 2654,
      "ĠØ§ÙĦÙħØ±": 2655,
      "\":[": 2656,
      "à´£": 2657,
      "Ġsay": 2658,
      "Ġaff": 2659,
      "Ġris": 2660,
      "ando": 2661,
      "((": 2662,
      "Ġà¤ĩà¤¸": 2663,
      "ÙĪÚº": 2664,
      "ĠØ¨Ø¯": 2665,
      "iversity": 2666,
      "ĠØ§Ø®": 2667,
      "Ġà´ħ": 2668,
      "Ġaround": 2669,
      "ought": 2670,
      "Ġchild": 2671,
      "ĠNa": 2672,
      "Ġben": 2673,
      "ØªØ¨": 2674,
      "à¤§": 2675,
      "Ġcome": 2676,
      "Ùİ": 2677,
      "Ð½Ð°": 2678,
      "Ġsmall": 2679,
      "90": 2680,
      "Ġmus": 2681,
      "Ġqui": 2682,
      "à¤¿à¤¸": 2683,
      ".c": 2684,
      "acy": 2685,
      "ember": 2686,
      "do": 2687,
      "-p": 2688,
      "istr": 2689,
      "ãĤ¹": 2690,
      "div": 2691,
      "Ġkey": 2692,
      "ãģı": 2693,
      "à¤¾à¤Ĥ": 2694,
      "Ġce": 2695,
      "ister": 2696,
      "cul": 2697,
      "Ġcheck": 2698,
      "ĠCO": 2699,
      "ĠAm": 2700,
      "ined": 2701,
      "ÙģØ³": 2702,
      "iter": 2703,
      "ĠÙħØ³Øª": 2704,
      "Ġol": 2705,
      "Ġprom": 2706,
      "Ġdirect": 2707,
      "Ġà´¨": 2708,
      "atus": 2709,
      "ĠÚ©ÙĪ": 2710,
      "ĠØªØ±": 2711,
      "-l": 2712,
      "aa": 2713,
      "bo": 2714,
      "Ġlet": 2715,
      "Ø¨ØŃ": 2716,
      "ĠØ¨Ùħ": 2717,
      "Ġide": 2718,
      "========": 2719,
      "ipp": 2720,
      "Ø§Ø°": 2721,
      "_n": 2722,
      "Ġduring": 2723,
      "à¤¨à¤¾": 2724,
      "ĠØ§ÙĦØ¹Ø§ÙĦÙħ": 2725,
      "CC": 2726,
      "ission": 2727,
      "Ġcour": 2728,
      "65": 2729,
      "ĠØ§ÙĦÙħØ¹": 2730,
      "book": 2731,
      "ĠÐ·": 2732,
      "Ġsex": 2733,
      "':": 2734,
      "äºĨ": 2735,
      "Ġview": 2736,
      "UR": 2737,
      "Ø·Ø±": 2738,
      "Ø£Ø³": 2739,
      "Ġrece": 2740,
      "Ġ\\\"": 2741,
      "Ġincluding": 2742,
      "ĠÙĬÙħ": 2743,
      "rop": 2744,
      "Ġdays": 2745,
      "arge": 2746,
      "Ġstand": 2747,
      "Ġà´®": 2748,
      "Ġbig": 2749,
      "'ll": 2750,
      "Ġconsider": 2751,
      "Ġ|Ċ": 2752,
      "Ġhead": 2753,
      "Ġmodel": 2754,
      "arr": 2755,
      "ÑģÐº": 2756,
      "Ġservices": 2757,
      "Ã¼n": 2758,
      "Ġiss": 2759,
      "kt": 2760,
      "ĠÙĥØ³Ø§Ø±Ø©": 2761,
      "ways": 2762,
      "Ġtype": 2763,
      "ights": 2764,
      "Ġbuild": 2765,
      "raw": 2766,
      "iqu": 2767,
      "ctor": 2768,
      "ØªØ¯": 2769,
      "002": 2770,
      "ories": 2771,
      "à¤¾à¤¯": 2772,
      "Ø¥ÙĨ": 2773,
      "SERT": 2774,
      "ream": 2775,
      "][": 2776,
      "ĠØ¨ØŃ": 2777,
      "ĠØ°ÙĦÙĥ": 2778,
      "ks": 2779,
      "ĠDes": 2780,
      "ĠØ§ÙĦØ§ÙĨ": 2781,
      "ĠCent": 2782,
      "Ġart": 2783,
      "vert": 2784,
      "-t": 2785,
      "ĠØ³ÛĴ": 2786,
      "\\\":": 2787,
      "ÙģØ¶": 2788,
      "ender": 2789,
      "_name": 2790,
      "atures": 2791,
      "ĠAp": 2792,
      "outh": 2793,
      "ÙĩØ§ÛĮ": 2794,
      "eter": 2795,
      "Ð»Ð¸": 2796,
      "ÛĮØ§": 2797,
      "ÙĬÙĨØ©": 2798,
      "Ġrange": 2799,
      "Ġgrow": 2800,
      "Ġmust": 2801,
      "iving": 2802,
      "Ġpresent": 2803,
      "éģ": 2804,
      "Ø§Ø¨Ø©": 2805,
      "Ġactiv": 2806,
      "AAAA": 2807,
      "Ġthree": 2808,
      "ĊĊĊ": 2809,
      "ĠØ£Ø³": 2810,
      "ĠEng": 2811,
      "ĠWith": 2812,
      "ĠÙħÙĤ": 2813,
      "ogr": 2814,
      "ĠÑ": 2815,
      "Ġterm": 2816,
      "ĥ½": 2817,
      "198": 2818,
      "ÙĦÙĩ": 2819,
      "Sh": 2820,
      "Ġwithout": 2821,
      "Ġsecond": 2822,
      "ÙĦØ§Øª": 2823,
      "oto": 2824,
      "Ġà¦ķà¦°": 2825,
      "icy": 2826,
      "Ġreally": 2827,
      "PP": 2828,
      "fect": 2829,
      "70": 2830,
      "Ġline": 2831,
      "ves": 2832,
      "aster": 2833,
      "ĠINTO": 2834,
      "Ġmill": 2835,
      "Ġwithin": 2836,
      "Ġaddition": 2837,
      "ains": 2838,
      "untime": 2839,
      "ico": 2840,
      "Ġune": 2841,
      "ãĥ¼ãĥ": 2842,
      "à´¨àµįà´¨": 2843,
      "Ġpat": 2844,
      "Con": 2845,
      "room": 2846,
      "çī": 2847,
      "àµįà´ª": 2848,
      "Ġexpl": 2849,
      "ley": 2850,
      "Ġpower": 2851,
      "INSERT": 2852,
      "pecial": 2853,
      "Ġpot": 2854,
      "Ġprice": 2855,
      "ALUES": 2856,
      "Ġaccess": 2857,
      "Ø¯Ø¯": 2858,
      "ÙħØ§ÙĨ": 2859,
      "icro": 2860,
      "Ġtri": 2861,
      "Ġleg": 2862,
      "Ġtrad": 2863,
      "ĠÙģÙī": 2864,
      "ĠÃ§": 2865,
      "ugg": 2866,
      "ĠØ§ÙĦÙħØ³Øª": 2867,
      "Ġden": 2868,
      "Ġsing": 2869,
      "Ġà¦¦": 2870,
      "Ġber": 2871,
      "ĠØ§ÙĦØªØ¹": 2872,
      "ĠAmer": 2873,
      "Ġproject": 2874,
      "false": 2875,
      "Ġ\"\"": 2876,
      "Ġapplic": 2877,
      "àµįà´¯": 2878,
      "ÑģÑı": 2879,
      "uff": 2880,
      "ĠÙĩÙĬ": 2881,
      "ĠÑĥ": 2882,
      "Ġeng": 2883,
      "Ġfac": 2884,
      "Ġprovide": 2885,
      "na": 2886,
      "Ġlearn": 2887,
      "-M": 2888,
      "aff": 2889,
      "Ġpas": 2890,
      "ĠSup": 2891,
      "âĢľ": 2892,
      "Ġimportant": 2893,
      "].": 2894,
      "ĠÙĦØª": 2895,
      "inc": 2896,
      "Ø¶Ø§": 2897,
      "Ø¨ÙĬØ¹": 2898,
      "ones": 2899,
      "àµģà´¨àµįà´¨": 2900,
      "ãģ¾ãģĻ": 2901,
      "ĠĠĠĠĠĠ": 2902,
      "met": 2903,
      "ha": 2904,
      "='": 2905,
      "ĠØ§Øª": 2906,
      "Ġref": 2907,
      "ĠØ¹Ø¨Ø¯": 2908,
      "[i": 2909,
      "pon": 2910,
      "Ġnext": 2911,
      "IM": 2912,
      "à´¸": 2913,
      "ĠPol": 2914,
      "OS": 2915,
      "ĠØ§ÙĦØ£Ø³": 2916,
      ".g": 2917,
      "Le": 2918,
      "Ñī": 2919,
      "CT": 2920,
      "ĠØ¨Ø§": 2921,
      "itor": 2922,
      "iles": 2923,
      "ster": 2924,
      "Ġdans": 2925,
      "Ġfull": 2926,
      "uz": 2927,
      "ÙĨØ¹": 2928,
      "ĠSo": 2929,
      "ÙĬØ§ÙĨ": 2930,
      "Ø«ÙĦ": 2931,
      "ĠÙĦÙĦÙħ": 2932,
      "Ġteam": 2933,
      "Ġsec": 2934,
      ".\"Ċ": 2935,
      "acter": 2936,
      "Ġtry": 2937,
      "Ø¦Ø©": 2938,
      "opy": 2939,
      "Ġvol": 2940,
      "Ġinterest": 2941,
      "ĠThere": 2942,
      "Ġà¤ıà¤ķ": 2943,
      "Ø§ÙĦÙĬØ©": 2944,
      "ãĤĵ": 2945,
      "Ġwrit": 2946,
      "'ve": 2947,
      "Ġlog": 2948,
      "ĠThey": 2949,
      "ases": 2950,
      "ĠØ§ÙĦØ³ÙĬ": 2951,
      "Ġlocal": 2952,
      "Ġmult": 2953,
      "umm": 2954,
      "å¿": 2955,
      "requ": 2956,
      "NA": 2957,
      "ui": 2958,
      "ĠAb": 2959,
      "********": 2960,
      "Ġstill": 2961,
      "ĠØ¹ÙħÙĦ": 2962,
      "æŃ": 2963,
      "å½": 2964,
      "--------------------------------": 2965,
      "à´±": 2966,
      "à´ª": 2967,
      "Ġcall": 2968,
      "Ġaccount": 2969,
      "ĠFl": 2970,
      "ĠâĢľ": 2971,
      "çĶ¨": 2972,
      "ittle": 2973,
      "ĠØªØ¬": 2974,
      "Ġmar": 2975,
      "ĠØ¨Ø´": 2976,
      "Ø¬Ø©": 2977,
      "'m": 2978,
      "ĠComm": 2979,
      "ØµÙģ": 2980,
      "Ġkeep": 2981,
      "index": 2982,
      "Ġcase": 2983,
      "Ġago": 2984,
      "user": 2985,
      "rite": 2986,
      "from": 2987,
      "\\+": 2988,
      "Ġjob": 2989,
      "ĠØ£Ø¨": 2990,
      "abil": 2991,
      "ĠÚĨ": 2992,
      "à§įà¦¤": 2993,
      "_in": 2994,
      "/w": 2995,
      "ØªÙĩØ§": 2996,
      "bre": 2997,
      "ĠÚ©Ûģ": 2998,
      "85": 2999,
      "ird": 3000,
      "ĠMed": 3001,
      "ips": 3002,
      "ination": 3003,
      "ĠNaN": 3004,
      "æł": 3005,
      "++": 3006,
      "ÙĬÙĩ": 3007,
      "Ġsize": 3008,
      "etwork": 3009,
      "à´¾à´¯": 3010,
      "Al": 3011,
      "Ġlove": 3012,
      "ĠÙĬØª": 3013,
      "Ġconf": 3014,
      "å±": 3015,
      "no": 3016,
      "ÐµÐ¼": 3017,
      "ella": 3018,
      "itive": 3019,
      "hr": 3020,
      "iven": 3021,
      "à¤¡à¤¼": 3022,
      "Ġroom": 3023,
      "à¥įà¤µ": 3024,
      "ĠBut": 3025,
      "Ġà¤¥": 3026,
      "Ġwater": 3027,
      "ĠâĢĶ": 3028,
      "ĠÙģØ±": 3029,
      "ala": 3030,
      "ĠMe": 3031,
      "Ġimp": 3032,
      "ØªÙī": 3033,
      "Ã©e": 3034,
      "300": 3035,
      "ume": 3036,
      "CE": 3037,
      "ĠØ§ÙĦØ±Ø¦ÙĬØ³": 3038,
      "ĠVALUES": 3039,
      "Ġfriend": 3040,
      "Ð°Ðº": 3041,
      "à¤¶": 3042,
      "/p": 3043,
      "Ġvideo": 3044,
      "ero": 3045,
      "à¤¿à¤¨": 3046,
      ");": 3047,
      "ĠÙĤØ¯": 3048,
      "Ġwebsite": 3049,
      "ĠĠĠĠĠĠĠĠĠĠĠĠĠĠĠĠĠĠĠĠĠĠĠĠĠĠĠ": 3050,
      "ĠRo": 3051,
      "ĠØ§ØŃ": 3052,
      "ÙĬÙĬÙĨ": 3053,
      "viron": 3054,
      "ĠÙĪÙĬ": 3055,
      "Ġmov": 3056,
      "LT": 3057,
      "AM": 3058,
      "Ġlas": 3059,
      "ãĤ¤": 3060,
      "\\/": 3061,
      "thing": 3062,
      "Ġlim": 3063,
      "ference": 3064,
      "æ°": 3065,
      "Ļàµįà´": 3066,
      "ĠØ§ÙĦØ¢": 3067,
      "file": 3068,
      "De": 3069,
      "ĠLa": 3070,
      "áĢ": 3071,
      "UT": 3072,
      "Se": 3073,
      "Ġgoing": 3074,
      "ĠServ": 3075,
      "http": 3076,
      "Pr": 3077,
      "ries": 3078,
      "Ġcell": 3079,
      "Ġplus": 3080,
      "ĠØ§ÙĦÙħØ¬": 3081,
      "ĠÙħØŃÙħØ¯": 3082,
      "Ø²Ø©": 3083,
      "Ø³Ø©": 3084,
      "Ġsem": 3085,
      "aring": 3086,
      "lÄ±": 3087,
      "Ġfew": 3088,
      "Ġà¦¤": 3089,
      "ift": 3090,
      "ĠØªÙĪ": 3091,
      "Ġexp": 3092,
      "Ø®ÙĦ": 3093,
      "ĠÙĤØ¨ÙĦ": 3094,
      "ĠØ§Ø¹": 3095,
      "adi": 3096,
      "ĠGu": 3097,
      "Ø§Ø¯ÙĬ": 3098,
      "Ġpa": 3099,
      "Ġproducts": 3100,
      "asi": 3101,
      "à¦ª": 3102,
      "ĠÙĦÙĩ": 3103,
      "____": 3104,
      "Ġarea": 3105,
      "ĠØ§ÙĦÙħØµ": 3106,
      "ãģį": 3107,
      "Ġindust": 3108,
      "Ġcontrol": 3109,
      "ĠØ§Ø±": 3110,
      "72": 3111,
      "Ġà¤«": 3112,
      "Ġfamily": 3113,
      "ĠMay": 3114,
      "ites": 3115,
      "ĠCo": 3116,
      "Ø§Ø³Ø©": 3117,
      "Ġhapp": 3118,
      "oud": 3119,
      "ä¸Ĭ": 3120,
      "ĠCar": 3121,
      "ending": 3122,
      "))Ċ": 3123,
      "150": 3124,
      "ulation": 3125,
      "ĠØ§ÙĦØ§Ø³Øª": 3126,
      "à¦¦": 3127,
      "ØŃØ±": 3128,
      "æĬ": 3129,
      "back": 3130,
      "ÙĥØ³": 3131,
      "alt": 3132,
      "ĠØ§ÙĦØ¯ÙĪÙĦ": 3133,
      "erc": 3134,
      "ĠShe": 3135,
      "ancial": 3136,
      "àµįà´ļ": 3137,
      "Ø§ÙĬØ±": 3138,
      "àµĢ": 3139,
      "Ġspe": 3140,
      "Ġà¤ĸ": 3141,
      "Ġbetter": 3142,
      "ula": 3143,
      "Ġstate": 3144,
      "api": 3145,
      "Ġou": 3146,
      "Ġau": 3147,
      "à¤¾à¤¦": 3148,
      "era": 3149,
      "CA": 3150,
      "',Ċ": 3151,
      "à¤Ń": 3152,
      "ĠÙĪÙģ": 3153,
      "Ġindivid": 3154,
      "Ġ...Ċ": 3155,
      "cle": 3156,
      "ĠCan": 3157,
      "ĠDE": 3158,
      "=\\\"": 3159,
      "ĠÚ©Ùĩ": 3160,
      "èĩ": 3161,
      "Ġlooking": 3162,
      "Ob": 3163,
      "æ³": 3164,
      "></": 3165,
      "You": 3166,
      "Ġbuy": 3167,
      "mber": 3168,
      "ÙĤØ·": 3169,
      "Ġresults": 3170,
      "ule": 3171,
      "ç§": 3172,
      "icht": 3173,
      "120": 3174,
      "Ġresearch": 3175,
      "à´ķ": 3176,
      "197": 3177,
      "Ø®Ø¯Ùħ": 3178,
      "ags": 3179,
      "ĠØªØ³": 3180,
      "irm": 3181,
      "Ġtot": 3182,
      "ÙĪØ©": 3183,
      "Ġexc": 3184,
      "Ġstudy": 3185,
      "ÙĦÙĬØ©": 3186,
      "ali": 3187,
      "Col": 3188,
      "Ġà¤ķà¤¿": 3189,
      "Ġput": 3190,
      "à¦Ł": 3191,
      "Ġfeel": 3192,
      "Ġport": 3193,
      "ÙĤØ§Øª": 3194,
      "à§ĩà¦¨": 3195,
      "ently": 3196,
      "och": 3197,
      "ĠÙĪØ¹": 3198,
      "ĠÐ½Ðµ": 3199,
      "alam": 3200,
      "Ġmight": 3201,
      "ĠØ§ÛĮÙĨ": 3202,
      "Ġbas": 3203,
      "aps": 3204,
      "Ġspecial": 3205,
      "acc": 3206,
      "return": 3207,
      "à¤Ī": 3208,
      "ille": 3209,
      "Ġimpro": 3210,
      "Ġbased": 3211,
      "var": 3212,
      "Ġfile": 3213,
      "ĠØ¨Øª": 3214,
      "Val": 3215,
      "ĠSc": 3216,
      "74": 3217,
      "Ġear": 3218,
      "ros": 3219,
      "Ø±ÙĬÙĥ": 3220,
      "ĠØ±Ø§": 3221,
      "Ġquality": 3222,
      "Ġhum": 3223,
      "ĠIntern": 3224,
      "ãģķ": 3225,
      "ances": 3226,
      "head": 3227,
      "Ġlot": 3228,
      "Ġà¤²à¤¿à¤ı": 3229,
      "81": 3230,
      "Ø§Ø¦ÙĬ": 3231,
      "Ø§ÙħÙĦ": 3232,
      "aya": 3233,
      "Ġmoney": 3234,
      "ports": 3235,
      "Ġhard": 3236,
      "To": 3237,
      "If": 3238,
      "ida": 3239,
      "ĠAss": 3240,
      "Ø´Ùģ": 3241,
      "Ð°Ð½": 3242,
      "On": 3243,
      "è§": 3244,
      "ysis": 3245,
      "ãģĹãģ¦": 3246,
      "ately": 3247,
      "Ġtoo": 3248,
      "ively": 3249,
      "82": 3250,
      "ples": 3251,
      "ÙĪÙħØ©": 3252,
      "Ġhot": 3253,
      "Ġ___": 3254,
      "ables": 3255,
      "Ġsure": 3256,
      "ãĥĪ": 3257,
      "gu": 3258,
      "ura": 3259,
      "nect": 3260,
      "ords": 3261,
      "ĠUniversity": 3262,
      "åİ": 3263,
      "ury": 3264,
      "rc": 3265,
      "ĠØ¬Ø¯ÙĬØ¯": 3266,
      "As": 3267,
      "61": 3268,
      "Ġless": 3269,
      "à¤¤à¥ĩ": 3270,
      "Ġhist": 3271,
      "List": 3272,
      "cer": 3273,
      "ĠØ§ÙĦØ¬Ùħ": 3274,
      "Ġtable": 3275,
      "use": 3276,
      "ĠØºÙĬØ±": 3277,
      "Ġ?": 3278,
      "action": 3279,
      "Ġmaterial": 3280,
      "ĠÙĬØŃ": 3281,
      "éĻ": 3282,
      "ĠØ§ÙĦÙħØ¯": 3283,
      "ĠGo": 3284,
      "ands": 3285,
      "Ġ\"$": 3286,
      "à¤¾à¤¸": 3287,
      "Ġgroup": 3288,
      "ÛĮÙħ": 3289,
      "lete": 3290,
      "Ġu": 3291,
      "Ġhttp": 3292,
      "Ø¯Ø§Ùħ": 3293,
      "ĠØªØ´": 3294,
      "ĠØ³Ø¨": 3295,
      "Ø°ÙĦÙĥ": 3296,
      "utes": 3297,
      "leg": 3298,
      "å¹´": 3299,
      "yd": 3300,
      "Ø±ÙĬØ¯": 3301,
      ".d": 3302,
      "obal": 3303,
      "ä¿": 3304,
      "ãģĤ": 3305,
      "ĠNOT": 3306,
      "ager": 3307,
      "Ġ_": 3308,
      "}}": 3309,
      "93": 3310,
      "Ġprofession": 3311,
      "Ġtreat": 3312,
      "irt": 3313,
      "ĠÑĩ": 3314,
      "ĠIm": 3315,
      "place": 3316,
      "ATE": 3317,
      "engan": 3318,
      "anks": 3319,
      "73": 3320,
      "åĴ": 3321,
      "ĠChe": 3322,
      "ÙĪØ§Ø±": 3323,
      "ĠØ±Ø¦ÙĬØ³": 3324,
      "Ġchang": 3325,
      "inter": 3326,
      "ĠÚ©Ø§": 3327,
      "Âł": 3328,
      "ĠÙĬÙĪÙħ": 3329,
      "akan": 3330,
      "à¤£": 3331,
      "lish": 3332,
      "Ġid": 3333,
      "Ø§ÙĦØ¨": 3334,
      "åĩº": 3335,
      "84": 3336,
      "verage": 3337,
      "joy": 3338,
      "odel": 3339,
      "obile": 3340,
      "83": 3341,
      "idad": 3342,
      "ï¿½ï¿½ï¿½ï¿½": 3343,
      "!!": 3344,
      "ĠÙħÙĦ": 3345,
      "çľ": 3346,
      "unction": 3347,
      "ØµÙĪÙĦ": 3348,
      "CO": 3349,
      "ĠAt": 3350,
      "import": 3351,
      "à´¿à´ķàµįà´ķ": 3352,
      "Ġstyle": 3353,
      "artment": 3354,
      "],Ċ": 3355,
      "Ġmeng": 3356,
      "utions": 3357,
      "Ø§Øº": 3358,
      "CH": 3359,
      "ĠÙĬÙħÙĥÙĨ": 3360,
      "æĶ": 3361,
      "ling": 3362,
      "Ġà¤Ńà¥Ģ": 3363,
      "ides": 3364,
      "Ġcontact": 3365,
      "ÙĬØ¬": 3366,
      "ka": 3367,
      "Ġcreate": 3368,
      "ÙĬØ´": 3369,
      "âĢĵ": 3370,
      "Ġge": 3371,
      "400": 3372,
      "_r": 3373,
      "ÚĪ": 3374,
      "63": 3375,
      "Ġsocial": 3376,
      "Ġelect": 3377,
      "ĠØ§ÙĦØ¹ÙħÙĦ": 3378,
      "ibr": 3379,
      "Ø§Ø¦ÙĬØ©": 3380,
      "Ġtyp": 3381,
      "Ġschool": 3382,
      "ĠAut": 3383,
      "aciÃ³n": 3384,
      "DD": 3385,
      "ids": 3386,
      "ogle": 3387,
      "Ġsince": 3388,
      "He": 3389,
      "iod": 3390,
      "Cont": 3391,
      "Ġalways": 3392,
      "ification": 3393,
      "Ġmach": 3394,
      "ĠOff": 3395,
      "à¤ı": 3396,
      "ourn": 3397,
      "Ġlow": 3398,
      "Ġlittle": 3399,
      "ĠNews": 3400,
      "Ġà¦ħ": 3401,
      "test": 3402,
      "ĠØ¹ÙĨØ¯": 3403,
      "Ġpriv": 3404,
      "Ð¾Ð±": 3405,
      "null": 3406,
      "ĠÙĥÙħØ§": 3407,
      "ĠÙĪÙĦ": 3408,
      "Ġexpect": 3409,
      "Ġappe": 3410,
      "po": 3411,
      "Ø¨ÙĨ": 3412,
      "Ġcontent": 3413,
      "Ġlang": 3414,
      "Ø§ÙĤØªØµ": 3415,
      "Ġredu": 3416,
      "ĠÙ¾Ø±": 3417,
      "mas": 3418,
      "ĠÙĤØ§ÙĦ": 3419,
      "ja": 3420,
      "ĠRead": 3421,
      "æİ": 3422,
      "Ġlink": 3423,
      "ÙĤØ§": 3424,
      "Ø¸Ø±": 3425,
      "ude": 3426,
      "ä»¥": 3427,
      "Ġplan": 3428,
      "ba": 3429,
      "Ġindividual": 3430,
      "ouble": 3431,
      "à¤°à¥Ģ": 3432,
      "Ø«ÙĬØ±": 3433,
      "Ġident": 3434,
      "itter": 3435,
      "Ø§Ø±ÙĬØ®": 3436,
      "ÙĪØ¶": 3437,
      "ĠrÃ©": 3438,
      "ended": 3439,
      "ering": 3440,
      "ĠÂ«": 3441,
      "IR": 3442,
      "Ġsoft": 3443,
      "tegr": 3444,
      "urity": 3445,
      "71": 3446,
      "à¥ĩà¤¶": 3447,
      "Ġable": 3448,
      "ĠInst": 3449,
      "essage": 3450,
      "Ġgive": 3451,
      "ÑģÑĤÐ²": 3452,
      "62": 3453,
      "ãĥĥ": 3454,
      "ican": 3455,
      "ney": 3456,
      "ources": 3457,
      "ĠSte": 3458,
      "vious": 3459,
      "ØŃØ¯Ø©": 3460,
      "Ġ..": 3461,
      "Ġsearch": 3462,
      "ĠDis": 3463,
      "ä¸ª": 3464,
      "æĹ¥": 3465,
      "abor": 3466,
      "94": 3467,
      "roll": 3468,
      "XFF": 3469,
      "ÐºÐ°": 3470,
      "ĠÙĬÙĤ": 3471,
      "âĢĶ": 3472,
      "éĿ": 3473,
      "IG": 3474,
      "Ġsever": 3475,
      "men": 3476,
      "AG": 3477,
      "Ð¾Ð½": 3478,
      "ĠÙħØµØ±": 3479,
      "not": 3480,
      "aces": 3481,
      "ãģ§ãģĻ": 3482,
      "à¤ķà¥ĩ": 3483,
      "Ġos": 3484,
      "ohn": 3485,
      "91": 3486,
      "Ġthings": 3487,
      "ĠØ§ÙĦÙħØ´": 3488,
      "ÙģØª": 3489,
      "ĠDr": 3490,
      "')Ċ": 3491,
      "à´Ļàµįà´": 3492,
      "Ġhouse": 3493,
      "):": 3494,
      "elle": 3495,
      "rel": 3496,
      "Ġ[-": 3497,
      "ĠDo": 3498,
      "Str": 3499,
      "apt": 3500,
      "Ã±": 3501,
      "Ġleft": 3502,
      "ĠPer": 3503,
      "ido": 3504,
      "Ġgen": 3505,
      "ente": 3506,
      "Ġturn": 3507,
      "ĠØ¹ÙĦÙĬÙĩ": 3508,
      "ĠEm": 3509,
      "Ġair": 3510,
      "vern": 3511,
      "ograph": 3512,
      "Ä°": 3513,
      "Ġbro": 3514,
      "Ġtext": 3515,
      "Ġarg": 3516,
      "idth": 3517,
      "Ø¸Ø©": 3518,
      "ĠÙĪÙĦØ§": 3519,
      "à¤ķà¥įà¤": 3520,
      "Ġsw": 3521,
      "ĀĀ": 3522,
      "Ø±Ø¨ÙĬ": 3523,
      "101": 3524,
      "Ġwon": 3525,
      "Ø±ÙĥØ²": 3526,
      "Ġpage": 3527,
      "à¥Į": 3528,
      "Ġlarge": 3529,
      "åĳ": 3530,
      "ĠÐ³": 3531,
      "ÙĪØ±ÙĬ": 3532,
      "ĠÃ¼": 3533,
      "item": 3534,
      "Ġens": 3535,
      "Read": 3536,
      "åĵ": 3537,
      ").Ċ": 3538,
      "itial": 3539,
      "pre": 3540,
      "BD": 3541,
      "Ġuntuk": 3542,
      "ĠÙĪØŃ": 3543,
      "Ġchange": 3544,
      "-in": 3545,
      "çİ": 3546,
      "àµ½": 3547,
      "à¥ī": 3548,
      "ĠÙĪØ§ÙĦØª": 3549,
      "Pl": 3550,
      "ĠÂ»": 3551,
      "Ġfollowing": 3552,
      "ĠYour": 3553,
      "ÙĪÙĨÙĬ": 3554,
      "Ġist": 3555,
      "è¡Į": 3556,
      "otal": 3557,
      "ĠÙĤØ±": 3558,
      "ĠNe": 3559,
      "Ġemail": 3560,
      "Ġevent": 3561,
      "Ð»Ð°": 3562,
      "/s": 3563,
      "Ġmaking": 3564,
      "ache": 3565,
      "fd": 3566,
      "ething": 3567,
      "Ġanother": 3568,
      "à®": 3569,
      "Ġdri": 3570,
      "vironment": 3571,
      "Ð¾Ñģ": 3572,
      "clus": 3573,
      "Ġlik": 3574,
      "EM": 3575,
      "Ġsignific": 3576,
      "this": 3577,
      "Ġsal": 3578,
      "æĦ": 3579,
      "åĴĮ": 3580,
      "atform": 3581,
      "ued": 3582,
      "ĠEl": 3583,
      "èµ": 3584,
      "Ġmas": 3585,
      "Ġà¦ľ": 3586,
      "Ġmeet": 3587,
      "Ġdig": 3588,
      "ural": 3589,
      "unt": 3590,
      "Ġtoday": 3591,
      "Ãº": 3592,
      "plement": 3593,
      "icial": 3594,
      "['": 3595,
      "Ġprim": 3596,
      "ols": 3597,
      "Ġdas": 3598,
      "à¤¾à¤ľ": 3599,
      "oo": 3600,
      "Ġenc": 3601,
      "ĠØ¹ÙĦ": 3602,
      "Ġeasy": 3603,
      "åī": 3604,
      "Ø±Ø³": 3605,
      "Ġhref": 3606,
      "ï¼ļ": 3607,
      "Get": 3608,
      "Ð¾Ð³Ð¾": 3609,
      "92": 3610,
      "ention": 3611,
      "idence": 3612,
      "CD": 3613,
      "BA": 3614,
      "ĠPar": 3615,
      "Ġnear": 3616,
      "aÅŁ": 3617,
      "cover": 3618,
      "ĠÙĪÙĥ": 3619,
      "By": 3620,
      ".get": 3621,
      "Ġemploy": 3622,
      "jor": 3623,
      "\")Ċ": 3624,
      "Ġocc": 3625,
      "iginal": 3626,
      "Ġuser": 3627,
      "Ġartic": 3628,
      "ãģ£ãģ¦": 3629,
      "Ġmax": 3630,
      "ÑĢÑĥ": 3631,
      "vol": 3632,
      "Ġbody": 3633,
      "ĠReg": 3634,
      "ØªÙħØ§Ø¹": 3635,
      "Ġbenef": 3636,
      "Ġbeh": 3637,
      "111": 3638,
      "Ġask": 3639,
      "à´ķàµįà´ķ": 3640,
      "àµįà´±": 3641,
      "ados": 3642,
      "Ø§ÙħØ¬": 3643,
      "à´¾à´£": 3644,
      "emb": 3645,
      "present": 3646,
      "Ġdengan": 3647,
      "ļàµįà´ļ": 3648,
      "ĠÃ¨": 3649,
      "Ġfood": 3650,
      "Ø¯Ùĩ": 3651,
      "_P": 3652,
      "Ġsuccess": 3653,
      "ured": 3654,
      "ĠØ¬ÙħÙĬØ¹": 3655,
      "Ġlight": 3656,
      "Ġallow": 3657,
      "How": 3658,
      "pm": 3659,
      "çĶŁ": 3660,
      "Ġpersonal": 3661,
      "ena": 3662,
      "face": 3663,
      "ua": 3664,
      "avor": 3665,
      "Ø¨Øª": 3666,
      "ãģł": 3667,
      "ording": 3668,
      "ãģĹãģŁ": 3669,
      "ĠWhat": 3670,
      "Ġmom": 3671,
      "Ġà¤¸à¤Ĥ": 3672,
      "################": 3673,
      "order": 3674,
      "iction": 3675,
      "\\\",": 3676,
      "AP": 3677,
      "umb": 3678,
      "ND": 3679,
      "ĠÙĪÙĨ": 3680,
      "Ø§Ø¦ÙĦ": 3681,
      "Ø±Ø§Øª": 3682,
      "è¦ģ": 3683,
      "reen": 3684,
      "reet": 3685,
      "Ġinclude": 3686,
      "fort": 3687,
      "ÙħØ§Ø±": 3688,
      "Ġunderstand": 3689,
      "196": 3690,
      "ØŃÙĬ": 3691,
      "Ġmot": 3692,
      "ĠComp": 3693,
      "aim": 3694,
      "itÃ©": 3695,
      "What": 3696,
      "_T": 3697,
      "æĸ¹": 3698,
      "Ġbi": 3699,
      "160": 3700,
      "ĠÛĮ": 3701,
      "Ġì": 3702,
      "ØµØ©": 3703,
      "ram": 3704,
      "ĠØŃÙĬØ«": 3705,
      "ĠØ§Ùģ": 3706,
      "_st": 3707,
      "Ġconc": 3708,
      "ĠÃ¶": 3709,
      "ocus": 3710,
      "à¤¹à¥Ģà¤Ĥ": 3711,
      "Ġpossible": 3712,
      "ÑĨÐ¸": 3713,
      "Res": 3714,
      "Time": 3715,
      "Ġagainst": 3716,
      "Ã©r": 3717,
      "ison": 3718,
      "Ġintern": 3719,
      "Ġcreat": 3720,
      "ufact": 3721,
      "Ġsat": 3722,
      "pen": 3723,
      "lev": 3724,
      "html": 3725,
      "Ph": 3726,
      "Ġini": 3727,
      "ules": 3728,
      "ĠÙĨÛĴ": 3729,
      "ĠÙĪØ¥": 3730,
      "apat": 3731,
      "ĠÙĪÙĤ": 3732,
      "lement": 3733,
      "Ġcomb": 3734,
      "Ġcertain": 3735,
      "Ø§ØµØ©": 3736,
      "imal": 3737,
      "ĠÑĢÐ°": 3738,
      "Ġstep": 3739,
      "iam": 3740,
      "hether": 3741,
      "Ð¸Ð¼": 3742,
      "Ġfut": 3743,
      "ĠØŃØ³": 3744,
      "Ø§ØµÙĦ": 3745,
      "Ø§Ø¨Ø¹": 3746,
      "log": 3747,
      "àµ¼": 3748,
      "pg": 3749,
      "à¦¿à¦ķ": 3750,
      "ilar": 3751,
      "Ġpract": 3752,
      "(s": 3753,
      "Ø·ÙĬÙĨ": 3754,
      "OD": 3755,
      "For": 3756,
      "æŀ": 3757,
      "ĠØ§ÙĦÙī": 3758,
      "Ġà´¤": 3759,
      "ĠPart": 3760,
      "tre": 3761,
      "........": 3762,
      "ĠPM": 3763,
      "Ġgot": 3764,
      "ãģĬ": 3765,
      "æĻ": 3766,
      "ived": 3767,
      "ĠØ£ØŃ": 3768,
      "ĠÙĪÙħÙĨ": 3769,
      "Ġpo": 3770,
      "Ġworking": 3771,
      "Ø¨Ùĩ": 3772,
      "Ġhttps": 3773,
      "ental": 3774,
      "ä¼ļ": 3775,
      "ette": 3776,
      "ØªØ®": 3777,
      "åĪĨ": 3778,
      "ĠSer": 3779,
      "ÛĮØª": 3780,
      "110": 3781,
      "ä¾": 3782,
      "è¨": 3783,
      "Ġ('": 3784,
      "uly": 3785,
      "ĠØ§ÙĦØ³Ø¹ÙĪØ¯": 3786,
      "Ð»Ñı": 3787,
      "ocument": 3788,
      "pression": 3789,
      "raft": 3790,
      "node": 3791,
      "des": 3792,
      "à¤¸à¥ĩ": 3793,
      "ĠThese": 3794,
      "iler": 3795,
      "ÙĤÙĪÙĤ": 3796,
      "ĠFin": 3797,
      "Ġmit": 3798,
      "Ġbed": 3799,
      "Ġ'',": 3800,
      "ires": 3801,
      "atest": 3802,
      "ĠEuro": 3803,
      "ĠSch": 3804,
      "ĠAng": 3805,
      "atural": 3806,
      "Ġrequire": 3807,
      "ception": 3808,
      "ĠCal": 3809,
      "iled": 3810,
      "éĽ": 3811,
      "Ġneeds": 3812,
      "ormal": 3813,
      "Ġisang": 3814,
      "ieve": 3815,
      "ĠÙħØ¤": 3816,
      "bd": 3817,
      "ÙģØ¹": 3818,
      "çĲ": 3819,
      "Ø¹Ø§Ø±": 3820,
      "Ġhal": 3821,
      "ube": 3822,
      "Ġlaw": 3823,
      "Ġbar": 3824,
      "portun": 3825,
      "ĠØŃØªÙī": 3826,
      "opt": 3827,
      "Ġ</": 3828,
      "Ġnever": 3829,
      "aging": 3830,
      "ĠGl": 3831,
      "Ġfa": 3832,
      "Ġgirl": 3833,
      "ÙĪÙĦØ§": 3834,
      "ties": 3835,
      "DF": 3836,
      "ends": 3837,
      "redit": 3838,
      "ĠDep": 3839,
      "Ø²ÙĬØ¯": 3840,
      "Ġmo": 3841,
      "Ġdiff": 3842,
      "Ġsomething": 3843,
      "Ġdevelopment": 3844,
      "Ġstat": 3845,
      "Ø¨ÙĬØ±": 3846,
      "BC": 3847,
      "Gr": 3848,
      "Ä±m": 3849,
      "åĢ": 3850,
      "Ġtotal": 3851,
      "Ġshort": 3852,
      "Ġzu": 3853,
      "Ġwin": 3854,
      "Ø§ØŃØ©": 3855,
      "ĠØ¯ÙĪÙĦ": 3856,
      "Ø±ÙĬØ§Ø¶": 3857,
      "ĠMy": 3858,
      "ĠØ§ÙĦÙĪØ·": 3859,
      "Ġfeatures": 3860,
      "ĠBy": 3861,
      "Ø§ÙĤØ©": 3862,
      "ests": 3863,
      "Ġinc": 3864,
      "è´": 3865,
      "Ad": 3866,
      "Ġenjoy": 3867,
      "lich": 3868,
      "Ġwomen": 3869,
      "ĠØ¬ÙĨ": 3870,
      "ĠÙĩÙĨØ§": 3871,
      "IP": 3872,
      "Ġeconom": 3873,
      "ÑĤÐ¾": 3874,
      "àµĤ": 3875,
      "ĠUs": 3876,
      "æµ": 3877,
      "Ġmeas": 3878,
      "æĮ": 3879,
      "Ø§Ø¬ØªÙħØ§Ø¹": 3880,
      "thers": 3881,
      "æĥ": 3882,
      "ØªØ¬": 3883,
      "à´¨àµįà´": 3884,
      "Ġaway": 3885,
      "ĠÙĬØ¬": 3886,
      "Ġà¤µà¤¿à¤": 3887,
      "Ø§ÙĨÙĪÙĨ": 3888,
      "Ġclean": 3889,
      "Ġbreak": 3890,
      "iÅŁ": 3891,
      "ructure": 3892,
      "ĠÙĦØ£": 3893,
      "}\\": 3894,
      "usher": 3895,
      "Ø¶Ø¹": 3896,
      "æĪĳ": 3897,
      "lt": 3898,
      "urg": 3899,
      "inline": 3900,
      "Ø§Ø±Ø¬": 3901,
      "ĠChrist": 3902,
      "åı¯": 3903,
      "rix": 3904,
      "éĹ": 3905,
      "||": 3906,
      "à¤¾à¤¹": 3907,
      "Ġoffers": 3908,
      "Ø§ÙĤØªØµØ§Ø¯": 3909,
      "ÙĪØ«": 3910,
      "ĠMon": 3911,
      "serv": 3912,
      "EE": 3913,
      "Ð¾Ð¶": 3914,
      "ä¸º": 3915,
      "Ġcolor": 3916,
      "Ä±z": 3917,
      "Ġà¤°à¤¹": 3918,
      "600": 3919,
      "Ø§ÙĦØ§Øª": 3920,
      "Ġcomo": 3921,
      "Ġdue": 3922,
      "opp": 3923,
      "èĥ½": 3924,
      "Ġmer": 3925,
      "Ġtimes": 3926,
      "Qu": 3927,
      "aur": 3928,
      "ĠCoun": 3929,
      "ØµØ¯": 3930,
      "vis": 3931,
      "à¦¿à¦¯à¦¼": 3932,
      "-w": 3933,
      "anies": 3934,
      "Ġgovern": 3935,
      "ĠMin": 3936,
      "Ġfund": 3937,
      ",NULL": 3938,
      "ING": 3939,
      "urance": 3940,
      "Ġvisit": 3941,
      "hi": 3942,
      "\\t": 3943,
      "init": 3944,
      "à¦¾à¦¯à¦¼": 3945,
      "imate": 3946,
      "Ú¾ÛĮ": 3947,
      "ÙĨÛĴ": 3948,
      "Ġpen": 3949,
      "ĠOur": 3950,
      "ĠWhen": 3951,
      "à¤¾à¤µ": 3952,
      "Ġrespons": 3953,
      "è¾": 3954,
      "urther": 3955,
      "ÙĨÙĬÙĨ": 3956,
      "Ġfour": 3957,
      "No": 3958,
      "Ġdom": 3959,
      "Ø¨Ø§Øª": 3960,
      "ouch": 3961,
      "uild": 3962,
      "indows": 3963,
      "uation": 3964,
      "Ø§Ø¨Ø§Øª": 3965,
      "new": 3966,
      "ĠØ£Ø¹": 3967,
      "Ġmil": 3968,
      "ably": 3969,
      "eral": 3970,
      "roid": 3971,
      "Ġsum": 3972,
      "Object": 3973,
      "ĠØªØ·": 3974,
      "Ġ]Ċ": 3975,
      "Ġfield": 3976,
      "à¦Ĺ": 3977,
      "Ġvi": 3978,
      "Ø±ÙĪØ¹": 3979,
      "cial": 3980,
      "ç´": 3981,
      "amente": 3982,
      "ĠØ¨Ø¹Ø¶": 3983,
      "Ġgames": 3984,
      "Ġtarget": 3985,
      "Ag": 3986,
      "Ġà´İ": 3987,
      "(m": 3988,
      "Ġ<<": 3989,
      "à¤Ĥà¤Ĺ": 3990,
      "ĠØ®Ø·": 3991,
      "side": 3992,
      "ĠØ§ÙĦØ¶": 3993,
      "ĠÙĪØ§ØŃ": 3994,
      "ĠBo": 3995,
      "ye": 3996,
      "Ġflo": 3997,
      "ĠCr": 3998,
      "Ø§Ø¹Ø¯": 3999,
      "Ġsus": 4000,
      "osp": 4001,
      "}{": 4002,
      "array": 4003,
      "Ø§Ø³ÙĬØ©": 4004,
      "ett": 4005,
      "resh": 4006,
      "ĠEd": 4007,
      "ÙĪØµ": 4008,
      "Ġnews": 4009,
      "æķ°": 4010,
      "Ø§ÙĦØª": 4011,
      "æ²": 4012,
      "ensive": 4013,
      "Ġhab": 4014,
      "éĸ": 4015,
      "ÙĦÙĤ": 4016,
      "Ġste": 4017,
      "ibility": 4018,
      "Ġkind": 4019,
      "_D": 4020,
      "ãĤ¯": 4021,
      "Ġpack": 4022,
      "à¦¿à¦¨": 4023,
      "ils": 4024,
      "ball": 4025,
      "Ä±ÅŁ": 4026,
      "-h": 4027,
      "ÙģØ©": 4028,
      "Ġmove": 4029,
      "ĠÙĪØ§ÙĦØ£": 4030,
      "Ġà¤ħà¤ª": 4031,
      "Ø¸Ø§Ùħ": 4032,
      "ÙħØ³": 4033,
      "Ġpast": 4034,
      "Ġperfect": 4035,
      "wards": 4036,
      "aint": 4037,
      "Ġsingle": 4038,
      "ocal": 4039,
      "Ġà¤¸à¤®": 4040,
      "ĠÐ°": 4041,
      "oman": 4042,
      "indi": 4043,
      "æ¯": 4044,
      "Ø±ØŃ": 4045,
      "à¦¾à¦²": 4046,
      "Ġenerg": 4047,
      "ØºÙĬØ±": 4048,
      "Ġdownload": 4049,
      "123": 4050,
      "Ø±ÛĮ": 4051,
      "ĠAg": 4052,
      "Ø³ÙĦØ§Ùħ": 4053,
      "ãĤĪ": 4054,
      "Ġni": 4055,
      "Ø®Ø¯Ø§Ùħ": 4056,
      "isa": 4057,
      "ĠØªÙģ": 4058,
      "ĠØ£ÙĥØ«Ø±": 4059,
      "Ġrecomm": 4060,
      "New": 4061,
      "umber": 4062,
      "ĠNot": 4063,
      "icult": 4064,
      "Ã¡s": 4065,
      "Ġcomplet": 4066,
      "à´¿à´°": 4067,
      "imum": 4068,
      "Ġant": 4069,
      "/b": 4070,
      "();Ċ": 4071,
      "ae": 4072,
      "cd": 4073,
      "ÙĪØ±ÙĬØ©": 4074,
      "ĠNone": 4075,
      "à´¿à´¨": 4076,
      "gi": 4077,
      "Ġpress": 4078,
      "ÙĬÙĦØ©": 4079,
      "ĠØ§ÙĦØ¹Ø±Ø¨ÙĬØ©": 4080,
      "Ġmal": 4081,
      "andom": 4082,
      "Ġà¤¨à¤¹à¥Ģà¤Ĥ": 4083,
      "Ġpan": 4084,
      "ãĥ«": 4085,
      "Ġaddress": 4086,
      "ä½ľ": 4087,
      "_type": 4088,
      "ĠÙĦÙĬ": 4089,
      "Ø·Ùģ": 4090,
      "atter": 4091,
      "Ð¾ÑģÑĤ": 4092,
      "ising": 4093,
      "Ġmean": 4094,
      "Ġpurch": 4095,
      "Ġsuper": 4096,
      "Ø§Ø±Ø³": 4097,
      "ÙĦØ³Ø·ÙĬÙĨ": 4098,
      "],\"": 4099,
      ".f": 4100,
      "ĠCor": 4101,
      "nya": 4102,
      "odes": 4103,
      "ãģĳ": 4104,
      "Ġrelations": 4105,
      "ĠJan": 4106,
      "à¥ĭà¤Ĺ": 4107,
      "Ø¨ÙĬØ©": 4108,
      "image": 4109,
      "ØŃÙĨØ©": 4110,
      "Ð¾Ðº": 4111,
      "Ġdat": 4112,
      "icle": 4113,
      "ÃŃa": 4114,
      "ension": 4115,
      "Ġbeaut": 4116,
      "Ġbit": 4117,
      "Ġneg": 4118,
      "EX": 4119,
      "iff": 4120,
      "ĉif": 4121,
      "agn": 4122,
      "angan": 4123,
      "eta": 4124,
      "ĠiÃ§": 4125,
      "uage": 4126,
      "cript": 4127,
      "108": 4128,
      "ĠUnited": 4129,
      "Ð°ÑĢ": 4130,
      "pri": 4131,
      "ĉinline": 4132,
      "ready": 4133,
      "Ġmais": 4134,
      "creen": 4135,
      "Ġstudents": 4136,
      "list": 4137,
      "ULT": 4138,
      "à´Ļàµįà´Ļ": 4139,
      "mes": 4140,
      "ĠØªØ¯": 4141,
      "Ġparticular": 4142,
      "102": 4143,
      "Ġstrateg": 4144,
      "ĠØ£ÙĨÙĩ": 4145,
      "ĠApr": 4146,
      "gy": 4147,
      "Ġvalues": 4148,
      "Ġchildren": 4149,
      "Ġsignificant": 4150,
      "Ø§ÙĦØŃ": 4151,
      "Value": 4152,
      "Ð°ÑĤÑĮ": 4153,
      "vec": 4154,
      "elling": 4155,
      "AF": 4156,
      "ĠVal": 4157,
      "Ġspace": 4158,
      "Ġdest": 4159,
      "ruction": 4160,
      "ĠWork": 4161,
      "Ġà¤Ł": 4162,
      "mm": 4163,
      "Ø§Ø±Ø¯": 4164,
      "Ġhaving": 4165,
      "Ġobject": 4166,
      "ora": 4167,
      "ĠNational": 4168,
      "Ġside": 4169,
      "dev": 4170,
      "ilt": 4171,
      "ored": 4172,
      "ĠStr": 4173,
      "Ġalong": 4174,
      "ĠÛģÛĮÚº": 4175,
      "idd": 4176,
      "asing": 4177,
      "250": 4178,
      "Ġselect": 4179,
      "Ġvon": 4180,
      "èĩª": 4181,
      "ĠØ³ÙĨ": 4182,
      "TER": 4183,
      "Method": 4184,
      "\"\"": 4185,
      "ĠØ§ÙĦØ§Øª": 4186,
      "Ġhours": 4187,
      "Is": 4188,
      "Ġweight": 4189,
      "ĠFree": 4190,
      "ĠĠĠĠĠĠĠĠĠĠĠĠĠĠĠĠĠ": 4191,
      "ava": 4192,
      "gn": 4193,
      "OL": 4194,
      "Ð°Ð½Ð¸": 4195,
      "ÙĪÙħØ§Øª": 4196,
      "Ġproblem": 4197,
      "Ġrate": 4198,
      "At": 4199,
      "Ġdating": 4200,
      "_S": 4201,
      "BB": 4202,
      "Ġcir": 4203,
      "à¤«": 4204,
      "åĽ½": 4205,
      "ĠØªØª": 4206,
      "unic": 4207,
      "Ġà¦ªà§įà¦°": 4208,
      "ãĥª": 4209,
      "apan": 4210,
      "now": 4211,
      "æľ¬": 4212,
      "iday": 4213,
      "Ġcode": 4214,
      "Ġwhy": 4215,
      "ayer": 4216,
      "ĠÙĤØ·": 4217,
      "ï¼ģ": 4218,
      ".sh": 4219,
      "ãĥ©": 4220,
      "ades": 4221,
      "ĠCity": 4222,
      "ĠÐ»": 4223,
      "___": 4224,
      "Ġarr": 4225,
      "je": 4226,
      "ĠUp": 4227,
      "Ġquick": 4228,
      "Ġinfl": 4229,
      "Ø·Ùħ": 4230,
      "bf": 4231,
      "à¤¤à¥Ģ": 4232,
      "-S": 4233,
      "Ġhom": 4234,
      "witter": 4235,
      "ĠÙħØ¨": 4236,
      "left": 4237,
      "Ġutil": 4238,
      "Ä±l": 4239,
      "Ġà¤Ĩà¤ª": 4240,
      "ĠHowever": 4241,
      "Ġphot": 4242,
      "ÐµÐ¹": 4243,
      "epend": 4244,
      "py": 4245,
      "Ġperm": 4246,
      "Ġdeterm": 4247,
      "year": 4248,
      "Ã©n": 4249,
      "ĠSm": 4250,
      "Ġmajor": 4251,
      "string": 4252,
      "Ġseveral": 4253,
      "Ġassoci": 4254,
      "ØªÙĦÙģ": 4255,
      "Ġdeal": 4256,
      "180": 4257,
      "ØŃØ¯Ø«": 4258,
      "box": 4259,
      "ĠâĢ¦": 4260,
      "ĠOne": 4261,
      "á»": 4262,
      "ÐºÐ¸": 4263,
      "ÙĪÙĨØ§": 4264,
      "ÙĦØ§Ø«": 4265,
      "ÙĦÙĬÙĦ": 4266,
      "Ġdiscuss": 4267,
      "Ð°Ð¼": 4268,
      "unch": 4269,
      "ä¸ĭ": 4270,
      "ĠØ±ÙĪ": 4271,
      "atients": 4272,
      "Ġmonths": 4273,
      "ators": 4274,
      "Ġspecific": 4275,
      "Ind": 4276,
      "105": 4277,
      "Ġà¤īà¤¨": 4278,
      "çĻ": 4279,
      "Ġcountry": 4280,
      "onus": 4281,
      "ĠBank": 4282,
      "ĠBest": 4283,
      "Â»": 4284,
      "ategory": 4285,
      "inary": 4286,
      "Ø¨Ø§": 4287,
      "ÙĩÙĦ": 4288,
      "/d": 4289,
      "Ġsent": 4290,
      "astic": 4291,
      "Ġtoget": 4292,
      "Ġnam": 4293,
      "RA": 4294,
      "ĠØªØ£": 4295,
      "ops": 4296,
      "ios": 4297,
      "comp": 4298,
      "106": 4299,
      "Ġtogether": 4300,
      "String": 4301,
      "åĪ°": 4302,
      "Ġoften": 4303,
      "Ġgiven": 4304,
      "Ġmatch": 4305,
      "Ġfar": 4306,
      "Ġacross": 4307,
      "800": 4308,
      "ÙģØ¶ÙĦ": 4309,
      "acebook": 4310,
      "Ø§ÙĤØ¹": 4311,
      "Ð¸Ð²": 4312,
      "ho": 4313,
      "ĠÎ": 4314,
      "ÙĤÙħ": 4315,
      "edd": 4316,
      "Ġinform": 4317,
      "Ġnetwork": 4318,
      "ĠOf": 4319,
      "Ġeduc": 4320,
      "label": 4321,
      "ester": 4322,
      "ĠBar": 4323,
      "ĠAdd": 4324,
      "ĠThat": 4325,
      "Node": 4326,
      "ÙĬØ¯Ø©": 4327,
      "Ġdate": 4328,
      "çŃ": 4329,
      "ÛĮØ´": 4330,
      "Ġlive": 4331,
      "ĠÑį": 4332,
      "æĿ¥": 4333,
      "Ġstay": 4334,
      "ABLE": 4335,
      "PS": 4336,
      "ĠGe": 4337,
      "Ġdeb": 4338,
      "003": 4339,
      "195": 4340,
      "Ġsens": 4341,
      "ãģĿ": 4342,
      "rect": 4343,
      "Ø·ÙĤØ©": 4344,
      "ises": 4345,
      "Ġcompet": 4346,
      "Ġà¤¸à¤¾à¤": 4347,
      "çº": 4348,
      "à¥įà¤®": 4349,
      "MENT": 4350,
      "Add": 4351,
      "Ġbelow": 4352,
      "Ġmeans": 4353,
      "Ġfocus": 4354,
      "DA": 4355,
      "ØªØ§Ø¨": 4356,
      "Ø¶Ø±": 4357,
      "ĠØ¸": 4358,
      "à¦¾à¦®": 4359,
      "ĠØ§ÙĦÙħØº": 4360,
      "à¤¨à¥Ģ": 4361,
      "uel": 4362,
      "Ø¬Ùĩ": 4363,
      "ony": 4364,
      "ĠØŃÙĪÙĦ": 4365,
      "Ġcult": 4366,
      "ĠØ§ÙĦÙħÙĤ": 4367,
      "Ġtalk": 4368,
      "ĠGet": 4369,
      "Ġexample": 4370,
      "Ġà¦¯": 4371,
      "nes": 4372,
      "._": 4373,
      "Ġloss": 4374,
      "ised": 4375,
      "UN": 4376,
      "ocation": 4377,
      "ç½": 4378,
      "æĪĲ": 4379,
      "icient": 4380,
      "),(": 4381,
      "Ġpotential": 4382,
      "ØŃÙħ": 4383,
      "Ġpri": 4384,
      "Ġdur": 4385,
      "çĤ": 4386,
      "fa": 4387,
      "Ġperiod": 4388,
      "Ġcommunity": 4389,
      "ÙĦØª": 4390,
      "Ġmakes": 4391,
      "121": 4392,
      "Date": 4393,
      "ste": 4394,
      "ÙĪØ§ÙĦ": 4395,
      "ĠMarket": 4396,
      "å¤ļ": 4397,
      "iful": 4398,
      "Ġtak": 4399,
      "Ġindustry": 4400,
      "Ġexist": 4401,
      "/Ċ": 4402,
      "Ø±Ø¬": 4403,
      "Ġvarious": 4404,
      "Ġfinancial": 4405,
      "ÙĪØ¯Ø©": 4406,
      "ÙĤÙĬÙĤ": 4407,
      "ĠÙħÙĨØ°": 4408,
      "ÙĥØ§Øª": 4409,
      "Ġcharacter": 4410,
      "Ġuma": 4411,
      ">\\": 4412,
      "ĠÙħÙĦÙĬ": 4413,
      "IV": 4414,
      "ĠWest": 4415,
      "Ä±k": 4416,
      "à¥ģà¤°": 4417,
      "EF": 4418,
      "Ġqual": 4419,
      "verse": 4420,
      "anch": 4421,
      "Ø¹Ø§": 4422,
      "àµģà´Ł": 4423,
      "Ø§ÙħØ©": 4424,
      "Ġà¤¡": 4425,
      "Ġmass": 4426,
      "ÙĪØ·": 4427,
      "à¦°à§įà¦": 4428,
      "change": 4429,
      "oken": 4430,
      "Ġcard": 4431,
      "vo": 4432,
      "ç«": 4433,
      "ĠSchool": 4434,
      "Or": 4435,
      "Ġperformance": 4436,
      "Bl": 4437,
      "Ġmembers": 4438,
      "ĠStud": 4439,
      "Ġclos": 4440,
      "lege": 4441,
      "Ø®Ø±Ùī": 4442,
      "Ø§Ø¦Ø±": 4443,
      "La": 4444,
      "IB": 4445,
      "Ġcontain": 4446,
      "Ġauf": 4447,
      "ÑĦ": 4448,
      "Ġlarg": 4449,
      "');Ċ": 4450,
      "/m": 4451,
      "Ġmanagement": 4452,
      "ĠÐ¾ÑĤ": 4453,
      "é¡": 4454,
      "ĠØ±Ø³": 4455,
      "Ġindic": 4456,
      "ÙĪØ±Ø¯": 4457,
      "ĠØ³Øª": 4458,
      "Ð¸Ð½": 4459,
      "ĠØ¹Ùħ": 4460,
      "Ġkar": 4461,
      "Des": 4462,
      "åŃĲ": 4463,
      "len": 4464,
      "Ġrisk": 4465,
      "ira": 4466,
      "140": 4467,
      "Ġprob": 4468,
      "vest": 4469,
      "ĠØ¨Ø£": 4470,
      "ĠØ§ÙĦÙħØªØŃØ¯Ø©": 4471,
      "Ġcur": 4472,
      "ĠĠĠĠĠĠĠĠĠĠĠĠ": 4473,
      "152": 4474,
      "(Ċ": 4475,
      "àµģà´ķ": 4476,
      "Ġà¦°": 4477,
      "Ġopportun": 4478,
      "é«": 4479,
      "eler": 4480,
      "à´¾à´°": 4481,
      "ĠØ§ÙĦÙĤØ±": 4482,
      "ĠØ¨Ø§ÙĦÙħ": 4483,
      "ĠPost": 4484,
      "à¤²à¥ĩ": 4485,
      "']": 4486,
      "ĠBusiness": 4487,
      "ground": 4488,
      "')": 4489,
      "Ġpubl": 4490,
      "Ġactually": 4491,
      "Ġsil": 4492,
      "ias": 4493,
      "nd": 4494,
      "æĸ°": 4495,
      "Ġanalysis": 4496,
      "ãĤ¢": 4497,
      "æĽ": 4498,
      "Ġbag": 4499,
      "Ġpath": 4500,
      "Ġdesc": 4501,
      "Ġshare": 4502,
      "Ġmel": 4503,
      "ĠÙĦÙĥ": 4504,
      "Ġamount": 4505,
      "Ġexam": 4506,
      "Ø²ÙĬ": 4507,
      "ĠWeb": 4508,
      "Ġhig": 4509,
      "va": 4510,
      "Ġak": 4511,
      "Ġansw": 4512,
      "Ġcourse": 4513,
      "yt": 4514,
      "Ġpers": 4515,
      "Ġdone": 4516,
      "æ±": 4517,
      "Ġvia": 4518,
      "ãĢĮ": 4519,
      "å¦": 4520,
      "_{": 4521,
      "ĠØ§ÙĦØ¨Ø±": 4522,
      "level": 4523,
      "103": 4524,
      "Ġeas": 4525,
      "ØŃÙĤ": 4526,
      "ivo": 4527,
      "Ġbecome": 4528,
      "oi": 4529,
      "Ø§Ø±ÙĬØ©": 4530,
      "Ġcomput": 4531,
      "Ġnight": 4532,
      "Ġgam": 4533,
      "ocks": 4534,
      "param": 4535,
      "ãĢį": 4536,
      "åĲĪ": 4537,
      "Ġposition": 4538,
      "ownload": 4539,
      "ĠHigh": 4540,
      "ĠØ§ÙĦÙħÙĨØª": 4541,
      "Im": 4542,
      "æĭ": 4543,
      "ival": 4544,
      "ĠAM": 4545,
      "(x": 4546,
      "Ġmak": 4547,
      "Ġ;": 4548,
      "Ø±Ø§ÙĤ": 4549,
      "255": 4550,
      "Ø§Ø±ÛĮ": 4551,
      "ĠØ§ÙĦØ£ÙĪÙĦ": 4552,
      "ãĥ»": 4553,
      "ĠØ§ÙĦØŃØ¬Ø±": 4554,
      "à¦¿à¦¤": 4555,
      "dated": 4556,
      "Ġabs": 4557,
      "Ġland": 4558,
      "Ġtax": 4559,
      "à¥įà¤²": 4560,
      "Ġstrong": 4561,
      "ken": 4562,
      "rodu": 4563,
      "Ġsimple": 4564,
      "ÛĮÙĦ": 4565,
      "Ġpaper": 4566,
      "-r": 4567,
      "107": 4568,
      "ÙĬÙĨØ§": 4569,
      "Ġinvol": 4570,
      "ÙĲ": 4571,
      "Ġhold": 4572,
      "Ġoptions": 4573,
      "Ġcasino": 4574,
      "Ġauthor": 4575,
      "Ġstatic": 4576,
      "Ġimpact": 4577,
      "Ġalready": 4578,
      "ĠØ§ÙĦØ§ØŃ": 4579,
      "ĠØªØ³Øª": 4580,
      "unc": 4581,
      "Ġimprove": 4582,
      "DB": 4583,
      "Data": 4584,
      "ogn": 4585,
      "Ġenvironment": 4586,
      "Ġenergy": 4587,
      "Ġdire": 4588,
      "xx": 4589,
      "pose": 4590,
      "Ġsoftware": 4591,
      "Ø§Ø¬Ùĩ": 4592,
      "iti": 4593,
      "Ġcity": 4594,
      "ĠØ£ÙĬØ¶Ø§": 4595,
      "Ġà´ļ": 4596,
      "${": 4597,
      "ĠFe": 4598,
      "ĠØ¢Ø®Ø±": 4599,
      "à´¾à´£àµį": 4600,
      "oper": 4601,
      "ners": 4602,
      "ĠØ§ÙĦØŃÙĥ": 4603,
      "my": 4604,
      "Ġbal": 4605,
      "ĠOct": 4606,
      "ki": 4607,
      "bb": 4608,
      "ĠÙħÙĪÙĤØ¹": 4609,
      "anced": 4610,
      "atory": 4611,
      "à´¿à´ļàµįà´ļ": 4612,
      "Ġcommon": 4613,
      "-st": 4614,
      "à§ĩà¦Ľ": 4615,
      "Ø¬ÙĬÙĦ": 4616,
      "Ġcou": 4617,
      "chen": 4618,
      "ĠØ§ÙĦØ¨ÙĦ": 4619,
      "ĠAug": 4620,
      "Ġsugg": 4621,
      "LO": 4622,
      "Ø¸Ùħ": 4623,
      "à¤ĸ": 4624,
      "ĠØ§ÙĦØªÙĨ": 4625,
      "Ġà¤¯à¤¹": 4626,
      "Ġblack": 4627,
      "izz": 4628,
      "Ġproperty": 4629,
      "ĠØ§ÙĦÙħØ¤": 4630,
      "itional": 4631,
      "Ġprovides": 4632,
      "System": 4633,
      "Ġrep": 4634,
      "Ø§ÙĩØ¯": 4635,
      "à´¾à´¨": 4636,
      "è¿Ļ": 4637,
      "Ã¨re": 4638,
      "column": 4639,
      "ÛĶĊ": 4640,
      "é¢": 4641,
      "ĠJohn": 4642,
      "ðŁ": 4643,
      "æĹ¶": 4644,
      "Ġcover": 4645,
      "orage": 4646,
      "ipment": 4647,
      "cret": 4648,
      "è½": 4649,
      "à¤¾à¤ĩ": 4650,
      "iche": 4651,
      "ript": 4652,
      "Ġinstall": 4653,
      "ĠÑģÑĤ": 4654,
      "Ġje": 4655,
      "bs": 4656,
      "Ġcompanies": 4657,
      "ĠHealth": 4658,
      "ÙĦÙĥØªØ±": 4659,
      "Ġcamp": 4660,
      "Ġcrit": 4661,
      "Ġentre": 4662,
      "Ġfuture": 4663,
      "cal": 4664,
      "Ġrequired": 4665,
      "Ġà¦¶": 4666,
      "ĠØ¹Ø¯Ø¯": 4667,
      "Ġgetting": 4668,
      "333": 4669,
      "omet": 4670,
      "istance": 4671,
      "Ġclear": 4672,
      "ither": 4673,
      "ĠInter": 4674,
      "Ã¶r": 4675,
      "à¤¾à¤°à¥Ģ": 4676,
      "ĠÐ·Ð°": 4677,
      "Ġpatients": 4678,
      "ĠfÃ¼r": 4679,
      "104": 4680,
      "åľ°": 4681,
      "Ġpred": 4682,
      "Ġnecess": 4683,
      "Ġmedia": 4684,
      "Ø§Ø³ÙĬ": 4685,
      "just": 4686,
      "ĠÙĥØ§ÙĨØª": 4687,
      "SS": 4688,
      "Ġparticip": 4689,
      "ØªÙĥ": 4690,
      "æ¸": 4691,
      "aged": 4692,
      "à¦¹": 4693,
      "ÙĨØ§Ø¡": 4694,
      "Ġenh": 4695,
      "neg": 4696,
      "Ø£Ø©": 4697,
      "Ø§Ø¯Ø±": 4698,
      "åħ¥": 4699,
      "emp": 4700,
      "ĠEconom": 4701,
      "All": 4702,
      "Ø¯Ùī": 4703,
      "Ġquestion": 4704,
      "Ð¾Ð»ÑĮ": 4705,
      "ĠÙĬØ³Øª": 4706,
      ".b": 4707,
      "Ġbul": 4708,
      "ï¼ī": 4709,
      "çĲĨ": 4710,
      "Ġpel": 4711,
      "Ġinput": 4712,
      "194": 4713,
      "Ø§Ø¹Ø§Øª": 4714,
      "ĠYork": 4715,
      "Ġconsum": 4716,
      "à¦¾à¦ķ": 4717,
      "ĠOut": 4718,
      "ief": 4719,
      "ĠĠĠĠĠĠĠĠĠĠĠĠĠĠĠĠĠĠĠĠĠĠĠĠĠĠĠĠĠĠĠ": 4720,
      "ĠPre": 4721,
      "_M": 4722,
      "\"},\"": 4723,
      "ĠSol": 4724,
      "Ġcut": 4725,
      "soft": 4726,
      "Ġseason": 4727,
      "ÙĩØ¨": 4728,
      "\"},{\"": 4729,
      "æ¬": 4730,
      "ĠÐ¾Ð±": 4731,
      "Ġdos": 4732,
      "ĠOnline": 4733,
      "ĠØ§ÙĦÙħØ®": 4734,
      "ledge": 4735,
      "ÙĬÙĤ": 4736,
      "ario": 4737,
      "Ġdetails": 4738,
      "ØªÙħØ¹": 4739,
      "eff": 4740,
      "Ġamong": 4741,
      "Ġthing": 4742,
      "ãĤĦ": 4743,
      "ï¼Ī": 4744,
      "Ġcoun": 4745,
      "ĠÙħØ·ØŃÙĨØ©": 4746,
      "ÙĬØ±Ø§ÙĨ": 4747,
      "ients": 4748,
      "TH": 4749,
      "Ġhost": 4750,
      "Ãµ": 4751,
      "xf": 4752,
      "iple": 4753,
      "à¥įà¤°à¥Ģ": 4754,
      "han": 4755,
      ".html": 4756,
      "Ġrelationship": 4757,
      "ĠÙĪÙĩÙĪ": 4758,
      "Ġpopular": 4759,
      "ixed": 4760,
      "ĊĊĊĊ": 4761,
      "aily": 4762,
      "ĠØ¥Ø°Ø§": 4763,
      "à¦ĩ": 4764,
      "Ġplease": 4765,
      "(t": 4766,
      "Ġage": 4767,
      "àµįà´²": 4768,
      "Ġcam": 4769,
      "inst": 4770,
      "ĠWorld": 4771,
      "/c": 4772,
      "ÙĬØ·": 4773,
      "Be": 4774,
      "Ġvoid": 4775,
      "ĠØ§ÙĦØ¬Ø¯ÙĬØ¯": 4776,
      "161": 4777,
      "akt": 4778,
      "sel": 4779,
      "ĠStates": 4780,
      "Ġothers": 4781,
      "ivity": 4782,
      "Ġface": 4783,
      "Ġcomes": 4784,
      "ĠEst": 4785,
      "ĠHot": 4786,
      "Ġhuman": 4787,
      "ope": 4788,
      "Ã¢": 4789,
      "lam": 4790,
      "Ġfinal": 4791,
      "ikan": 4792,
      "Ġextra": 4793,
      "ç¤": 4794,
      "Ä±nda": 4795,
      "ÃŁ": 4796,
      "ĠØ¨ÙĪ": 4797,
      "ĠØ±ÙĬ": 4798,
      "Ġpi": 4799,
      "Ġrole": 4800,
      "%%": 4801,
      "ĠÙĬØªÙħ": 4802,
      "'d": 4803,
      "const": 4804,
      "äºĭ": 4805,
      "Ġ[\"": 4806,
      "Ġà´ĩ": 4807,
      "raz": 4808,
      "ĠØ§ÙĦØ§Ø³": 4809,
      "Ġmillion": 4810,
      "Ġknown": 4811,
      "Ø³ØªØ§ÙĨ": 4812,
      "Ġphys": 4813,
      "ĠDi": 4814,
      "Ġrespect": 4815,
      "ĠØ³Ø±": 4816,
      "ĠResearch": 4817,
      "Ġprofessional": 4818,
      "Ġconnect": 4819,
      "asa": 4820,
      "ĠTechn": 4821,
      "ØŃÙĪ": 4822,
      "Ġcalled": 4823,
      "Ġsays": 4824,
      "ĠIl": 4825,
      "EB": 4826,
      "otes": 4827,
      "ØªÛĮ": 4828,
      "hing": 4829,
      "ternal": 4830,
      "rie": 4831,
      "Ġtitle": 4832,
      "ĠØ«Ùħ": 4833,
      "II": 4834,
      "FAULT": 4835,
      "ĉreturn": 4836,
      "Ø±ÙĥØ§Øª": 4837,
      "à¤¯à¤¾": 4838,
      "125": 4839,
      "à¥įà¤¥": 4840,
      "ima": 4841,
      "apers": 4842,
      "Ġteach": 4843,
      "PT": 4844,
      "ĠAust": 4845,
      "Ġplatform": 4846,
      "Ã¨s": 4847,
      "117": 4848,
      "Ġbegin": 4849,
      "666": 4850,
      "Ġuntil": 4851,
      "ĠHome": 4852,
      "ÙħØ¨Ø±": 4853,
      "ĠSouth": 4854,
      "elt": 4855,
      "åŃ¦": 4856,
      "Ú¯Ø±": 4857,
      "Ġnp": 4858,
      "iting": 4859,
      "Ġpur": 4860,
      "ĠPark": 4861,
      "Ġseries": 4862,
      "EY": 4863,
      "oph": 4864,
      "_h": 4865,
      "ober": 4866,
      "Ġtim": 4867,
      "Ġthought": 4868,
      "iki": 4869,
      "112": 4870,
      "ika": 4871,
      "Ġmanufact": 4872,
      "ç¨": 4873,
      "ĠÙħØŃØ·Ùħ": 4874,
      "ãģ©": 4875,
      "ĠÙĨÙĤ": 4876,
      "ĠØ¹Ø¨Ø±": 4877,
      "iques": 4878,
      "Per": 4879,
      "Ġabove": 4880,
      "192": 4881,
      "Up": 4882,
      "gener": 4883,
      "Ø§ÙĦØ£": 4884,
      "ĠReview": 4885,
      "ĠEurope": 4886,
      "ordin": 4887,
      "rial": 4888,
      "Ø³Ø¨Ø¨": 4889,
      "sy": 4890,
      "ĠList": 4891,
      "Ġtreatment": 4892,
      "Ġvers": 4893,
      "Ġautom": 4894,
      "ĠØŃØ¯": 4895,
      "ĠTrans": 4896,
      "ÐµÐ»ÑĮ": 4897,
      "Ġred": 4898,
      "ares": 4899,
      "uit": 4900,
      "ĠØ£Ø®Ø¨Ø§Ø±": 4901,
      "ĠÙĩÙħ": 4902,
      "Ġdistrib": 4903,
      "å®ļ": 4904,
      "åŁ": 4905,
      "ao": 4906,
      "æı": 4907,
      "Ġyet": 4908,
      ".png": 4909,
      "130": 4910,
      "Ġà´Ĩ": 4911,
      "ĠState": 4912,
      "Ġever": 4913,
      "Ġà¤ķà¤¿à¤¯à¤¾": 4914,
      "ĠInc": 4915,
      "ounds": 4916,
      "title": 4917,
      "_code": 4918,
      "ÑĢÐµÐ´": 4919,
      "anya": 4920,
      "æ´": 4921,
      "ãģĻãĤĭ": 4922,
      "à¦ľ": 4923,
      "ĠAmerican": 4924,
      "amm": 4925,
      "Ġhigher": 4926,
      "128": 4927,
      "Ġincrease": 4928,
      "Ġapproach": 4929,
      "IE": 4930,
      "count": 4931,
      "ØªÙĦ": 4932,
      "256": 4933,
      "FC": 4934,
      "Ø¦ÛĴ": 4935,
      "izing": 4936,
      "uan": 4937,
      "ÐµÐ´": 4938,
      "Ġmind": 4939,
      "last": 4940,
      "122": 4941,
      "Ġprem": 4942,
      "Ġimage": 4943,
      "Ġpoints": 4944,
      "itted": 4945,
      "ÛĮØ³": 4946,
      "Ġleast": 4947,
      "Ġquestions": 4948,
      "åĭ": 4949,
      "å¸Ĥ": 4950,
      "ĠÙĪÙģÙĬ": 4951,
      "900": 4952,
      "Ø¹ÙħÙĦ": 4953,
      "Ġversion": 4954,
      "Ġwhether": 4955,
      "Ġindex": 4956,
      "ĠPrice": 4957,
      "Ġrepresent": 4958,
      "çĦ": 4959,
      "Ġyoung": 4960,
      "Ġtechnology": 4961,
      "Ġsimilar": 4962,
      "109": 4963,
      "ĠÙĦÙĨ": 4964,
      "èª": 4965,
      "ĠØ¨Ø·": 4966,
      "Ġmoment": 4967,
      "ĠPres": 4968,
      "ĠÙĦØŃ": 4969,
      "ĠØĮ": 4970,
      "CPP": 4971,
      "ĠØ§ÙĦØµØŃ": 4972,
      "hib": 4973,
      "Ã´": 4974,
      "å®¶": 4975,
      "Ġmes": 4976,
      "_data": 4977,
      "ç¬": 4978,
      "à¤ķà¥įà¤·": 4979,
      "Ġsites": 4980,
      ".jpg": 4981,
      "ĠRep": 4982,
      "void": 4983,
      "Che": 4984,
      "ĠPe": 4985,
      "Ġpick": 4986,
      "gress": 4987,
      "Ø¶ÙĪØ¹": 4988,
      "ĠÙĦÙĪ": 4989,
      "ĠEr": 4990,
      "endo": 4991,
      "ÙģÙĪ": 4992,
      "uary": 4993,
      "Ġprotect": 4994,
      "gg": 4995,
      "/l": 4996,
      "ĠSw": 4997,
      "ĠAcc": 4998,
      "ÙĬÙģØ©": 4999,
      "Sp": 5000,
      "leep": 5001,
      "_of": 5002,
      "ãģ£ãģŁ": 5003,
      "ÙĩÙĬ": 5004,
      "Ø¹ÙĬØ©": 5005,
      "Ġenter": 5006,
      "nov": 5007,
      "ĠØ§ÙĦØ³Ø¹ÙĪØ¯ÙĬØ©": 5008,
      "Ġdam": 5009,
      "Ã¶n": 5010,
      "é«ĺ": 5011,
      "ĠÙħÙħ": 5012,
      "Ġcaus": 5013,
      "Ġdari": 5014,
      "Ġbase": 5015,
      "(f": 5016,
      "Ġcustomers": 5017,
      "ahan": 5018,
      "ham": 5019,
      "aling": 5020,
      "ãĤģ": 5021,
      "Ġchall": 5022,
      "ĠÛģÙĪ": 5023,
      "istic": 5024,
      "Ġunique": 5025,
      "mo": 5026,
      "ministr": 5027,
      "iers": 5028,
      "Ø§Ø¦Ø¯": 5029,
      "ĠØ¢ÙĨ": 5030,
      "size": 5031,
      "wa": 5032,
      "atal": 5033,
      "Ġoil": 5034,
      "Ġfront": 5035,
      "MS": 5036,
      "Ġwalk": 5037,
      "ĠØ¢ÙĦØ©": 5038,
      "Ġcook": 5039,
      "ãģªãģĦ": 5040,
      "icense": 5041,
      "bol": 5042,
      "Ġmusic": 5043,
      "Ø§Ø¨ÙĤ": 5044,
      "ĠØ§ÙĤ": 5045,
      "ĠAct": 5046,
      "Ġnatural": 5047,
      "ĠAf": 5048,
      "gl": 5049,
      "ãģĵãģ¨": 5050,
      "¡à¦¼": 5051,
      "Ġexperi": 5052,
      "Ø¨Ø§Ø¨": 5053,
      "ÙĪÙĬØ±": 5054,
      "inde": 5055,
      "114": 5056,
      "Ġgovernment": 5057,
      ".w": 5058,
      "Ġavec": 5059,
      "Ġ\\Ċ": 5060,
      "ĠAc": 5061,
      "ĠÙħØ¬ÙĦØ³": 5062,
      "Ãµes": 5063,
      "Ġaud": 5064,
      "ĠØªØŃØª": 5065,
      "Ġà¦Ĺ": 5066,
      "Ġreason": 5067,
      "Ġhar": 5068,
      "ĠÙĬÙĥÙĪÙĨ": 5069,
      "ĉint": 5070,
      "Ġdump": 5071,
      "ĠÐ²Ñĭ": 5072,
      "éĥ": 5073,
      "Ġusers": 5074,
      "Er": 5075,
      "ç®": 5076,
      "ÙĬÙħØ©": 5077,
      "ĠRet": 5078,
      "ĠÙĪØ±": 5079,
      "Ø²ÙĦ": 5080,
      "isi": 5081,
      "ĠDEFAULT": 5082,
      "Ø¨Ø¹": 5083,
      "å°ı": 5084,
      "Ġitems": 5085,
      "127": 5086,
      "kn": 5087,
      "Ġgrowth": 5088,
      "Ġpict": 5089,
      "ii": 5090,
      "Ġdella": 5091,
      "Ġprovided": 5092,
      "Ġapplication": 5093,
      "Ġaction": 5094,
      "bar": 5095,
      "MP": 5096,
      "awa": 5097,
      "à´¿àµ½": 5098,
      "ĠBlack": 5099,
      "sole": 5100,
      "Ġcoll": 5101,
      "ÙģØ§ÙĤ": 5102,
      "empl": 5103,
      "DC": 5104,
      "Ġseg": 5105,
      "Ġbank": 5106,
      "Array": 5107,
      "rown": 5108,
      "number": 5109,
      "190": 5110,
      "ults": 5111,
      "Ø§ÙĨÙĬØ§": 5112,
      "atan": 5113,
      "144": 5114,
      "max": 5115,
      "db": 5116,
      "lections": 5117,
      "Ġprivate": 5118,
      "Ġwr": 5119,
      "ĠÙĬØ¯": 5120,
      "Ġà¤¹à¥Ģ": 5121,
      "Ġarticle": 5122,
      "Ġtut": 5123,
      "ological": 5124,
      ");ĊĊ": 5125,
      "Ġsym": 5126,
      "ournal": 5127,
      "ĠÅŁ": 5128,
      "ĠÙĦØ¥": 5129,
      "TR": 5130,
      "ÙĥØ¯": 5131,
      "ptember": 5132,
      "ÙĥÙĬ": 5133,
      "ev": 5134,
      "Il": 5135,
      "IF": 5136,
      "igr": 5137,
      "ĠÙħØ«ÙĦ": 5138,
      "Em": 5139,
      "ç¾": 5140,
      "append": 5141,
      "ØªÙĨ": 5142,
      "medi": 5143,
      "Ø¯Ø§Ø±Ø©": 5144,
      "ges": 5145,
      "oups": 5146,
      "Ġgrand": 5147,
      "Ġpolit": 5148,
      "position": 5149,
      "There": 5150,
      "ĠIN": 5151,
      "Ġach": 5152,
      "åīį": 5153,
      "math": 5154,
      "ideos": 5155,
      "Ä±nÄ±": 5156,
      "edu": 5157,
      "ĠWill": 5158,
      "urb": 5159,
      "ij": 5160,
      ".h": 5161,
      "éĺ": 5162,
      "Ġfast": 5163,
      "Ġissues": 5164,
      "/t": 5165,
      "Ġimm": 5166,
      "Ġlower": 5167,
      "quest": 5168,
      "--Ċ": 5169,
      "offset": 5170,
      "ĠØ¨Ø´ÙĥÙĦ": 5171,
      "../": 5172,
      "Ġstory": 5173,
      "ÙģÙĦ": 5174,
      "ĠCons": 5175,
      "Ġfurther": 5176,
      "Ġheart": 5177,
      "ãģĪ": 5178,
      "Ð¾Ð·": 5179,
      "ĠÙĦÙĦØ£": 5180,
      "_ms": 5181,
      "Ġsch": 5182,
      "sequ": 5183,
      "ÙĪÙĨØ©": 5184,
      "Ġgeneral": 5185,
      "ØŃØ§Ø¯": 5186,
      "Ø§Ø¶ÙĬ": 5187,
      "CRE": 5188,
      "ĠØµÙĪØ±": 5189,
      "oke": 5190,
      "istics": 5191,
      "Ġ\"\"\"Ċ": 5192,
      "115": 5193,
      "203": 5194,
      "à¤¿à¤°": 5195,
      "Ġpercent": 5196,
      "Ġsort": 5197,
      "\\Ċ": 5198,
      "ĠÙĦÙĦØ¨ÙĬØ¹": 5199,
      "_R": 5200,
      "ĠGoogle": 5201,
      "rypt": 5202,
      "191": 5203,
      "Ġtraining": 5204,
      "Post": 5205,
      "Ġfavor": 5206,
      "âĢ¦Ċ": 5207,
      "Ġ},": 5208,
      "à¥ģà¤²": 5209,
      "args": 5210,
      "Ġonce": 5211,
      "Ġenough": 5212,
      "ication": 5213,
      "uments": 5214,
      "ynam": 5215,
      "æľĢ": 5216,
      "193": 5217,
      "px": 5218,
      "lem": 5219,
      "FB": 5220,
      "most": 5221,
      "azione": 5222,
      "à¤ķà¤°": 5223,
      "ĠÙĪÙĦÙĥ": 5224,
      "Ġà¤²à¥ĩ": 5225,
      "Ġpolicy": 5226,
      "Ġsale": 5227,
      "ĠCenter": 5228,
      "oute": 5229,
      "dis": 5230,
      "ĠAre": 5231,
      "Ġtrack": 5232,
      "Ġrecord": 5233,
      "ĠØ¬Ùĩ": 5234,
      "Ġkung": 5235,
      "Ã©es": 5236,
      "ried": 5237,
      "*)": 5238,
      "zer": 5239,
      "ÐµÐ½Ð¸Ñı": 5240,
      "à´¤àµį": 5241,
      "ĠØ´Ø±": 5242,
      "_w": 5243,
      "gun": 5244,
      "Ġcu": 5245,
      "pa": 5246,
      "-a": 5247,
      "àµĩà´": 5248,
      "rec": 5249,
      "Ġito": 5250,
      "ÙĬØ®": 5251,
      "Ġ{\\": 5252,
      "Ġfilm": 5253,
      "ĠAfter": 5254,
      "Ab": 5255,
      "ÐµÐº": 5256,
      "Ġplant": 5257,
      "ĠØµØŃ": 5258,
      "Ġà¦ļ": 5259,
      "ÙĪÙĩ": 5260,
      "Ġcomplete": 5261,
      "Úĳ": 5262,
      "Fr": 5263,
      "Ġprevious": 5264,
      "Ġep": 5265,
      "ĠÐ¿Ð¾": 5266,
      "Ġcustomer": 5267,
      "Ġvous": 5268,
      "ĠFeb": 5269,
      "åł": 5270,
      "alls": 5271,
      "èĤ": 5272,
      "ĠØ¨ÙĤ": 5273,
      "isation": 5274,
      "116": 5275,
      "ĠNow": 5276,
      "istry": 5277,
      "ÙĨØ§ÙĨ": 5278,
      "Ġworks": 5279,
      "ĠSl": 5280,
      "Ùı": 5281,
      "ĠSk": 5282,
      "Ġà¤¹à¥ģà¤": 5283,
      "Ã©t": 5284,
      "yo": 5285,
      "Ġregard": 5286,
      "amento": 5287,
      "Ġmachine": 5288,
      "mente": 5289,
      "oring": 5290,
      "ĠØ¨ÙĩØ§": 5291,
      "Ġcontrib": 5292,
      "Ø§ÙĦØ¯": 5293,
      "Ø§Ø¯Ùĩ": 5294,
      "-to": 5295,
      "nb": 5296,
      "àµĬ": 5297,
      "Ġesc": 5298,
      "eters": 5299,
      "ĠÙģÙĬÙĩØ§": 5300,
      "çķ": 5301,
      "ÙĨØ§ÙħØ¬": 5302,
      "æ³ķ": 5303,
      "ĠØ§ÙĦØ¬Ø²": 5304,
      "ements": 5305,
      "sa": 5306,
      "ĠAS": 5307,
      "ØµØŃ": 5308,
      "ÙĪØ§Ø¡": 5309,
      "CB": 5310,
      "Ġ}ĊĊ": 5311,
      "ĠØ§ÙĦØ±Ø¦ÙĬØ³ÙĬØ©": 5312,
      "ä»ĸ": 5313,
      "-Ċ": 5314,
      "ĠTV": 5315,
      "aba": 5316,
      "Ġvo": 5317,
      "AE": 5318,
      "ĠØ§ÙĦØªØŃ": 5319,
      "Ġwatch": 5320,
      "Ġintegr": 5321,
      "board": 5322,
      "ading": 5323,
      "Ġcrusher": 5324,
      "èī": 5325,
      "(n": 5326,
      "Ġetc": 5327,
      "ĠFrom": 5328,
      "ĠÙĨØ³": 5329,
      "Ġglobal": 5330,
      "Ġoption": 5331,
      "Ġminutes": 5332,
      "source": 5333,
      "Ġing": 5334,
      "ĠGener": 5335,
      "à´ªàµįà´ª": 5336,
      "Ġsystems": 5337,
      "Ġobtain": 5338,
      "posed": 5339,
      "Ġbrand": 5340,
      "duc": 5341,
      "vi": 5342,
      "ĠÙĨÙģØ³": 5343,
      "Ġdoesn": 5344,
      "Ġnode": 5345,
      "anda": 5346,
      "ĠØ¯ÙĪØ±": 5347,
      "ona": 5348,
      "Ġbring": 5349,
      "Ġeffects": 5350,
      "Ġà¤ķà¤°à¤¨à¥ĩ": 5351,
      "ny": 5352,
      "ĠSim": 5353,
      "Ø¹Øª": 5354,
      "Ø¹ÙĦØ§Ùħ": 5355,
      "ĠØ¨Ø³": 5356,
      "cpp": 5357,
      "Ġcredit": 5358,
      "Key": 5359,
      "''": 5360,
      "Par": 5361,
      "cm": 5362,
      "à¥įà¤ķ": 5363,
      "link": 5364,
      "ÙħÙĬØ©": 5365,
      "ello": 5366,
      "ĠDel": 5367,
      "Ġcomment": 5368,
      "à¤Ĥà¤¦": 5369,
      "ÑĩÐµ": 5370,
      "Ġdise": 5371,
      "à¦¾à¦¦": 5372,
      "Ġaw": 5373,
      "ĠVer": 5374,
      "Ø§ÙĦÙģ": 5375,
      "ĠØ§ÙĦØ¥ÙĦÙĥØªØ±": 5376,
      "àµĨà´¯": 5377,
      "Ø¬Ø¯": 5378,
      "ening": 5379,
      "ãģĭãĤī": 5380,
      "Te": 5381,
      "ĠÐµ": 5382,
      "format": 5383,
      "åħ¨": 5384,
      "åķ": 5385,
      "ìĿ": 5386,
      "oon": 5387,
      "Ġtravel": 5388,
      "ĠAir": 5389,
      "ĠHer": 5390,
      "à¥ĩà¤Ł": 5391,
      "Ġmember": 5392,
      "ami": 5393,
      "å¯¹": 5394,
      "Ġdim": 5395,
      "================": 5396,
      "Îĳ": 5397,
      "ĠÙĦÙĥÙĨ": 5398,
      "ĠØ§ÙĦÙĪØ²": 5399,
      "ivery": 5400,
      "ĠØ´Ø®Øµ": 5401,
      "empt": 5402,
      ".M": 5403,
      "å°±": 5404,
      "ani": 5405,
      "Ø§Ø¦ÙĬÙĦ": 5406,
      "ĠÙģÙĬÙĩ": 5407,
      "ØªØ§": 5408,
      "Ġinternet": 5409,
      "epoch": 5410,
      "à§įà¦Ł": 5411,
      "à¤¾à¤Ī": 5412,
      "ĠØ´Ø±ÙĥØ©": 5413,
      "Ã©m": 5414,
      "à¤Ĥà¤¤": 5415,
      "ĠÙĦØ£ÙĨ": 5416,
      "ĠØ§ÙĦÙĬÙħÙĨ": 5417,
      "onse": 5418,
      "Ġespecial": 5419,
      "ĠIL": 5420,
      "çµ": 5421,
      "ellent": 5422,
      "\"},": 5423,
      "ĠØ£ÙĪÙĦ": 5424,
      "æĢ§": 5425,
      "-B": 5426,
      "Ø¹ÙĬØ¯": 5427,
      "Ġreviews": 5428,
      "Ã¹": 5429,
      "ĠApril": 5430,
      "ifier": 5431,
      "àµĭà´": 5432,
      "Ø±Ø¨Ø¹": 5433,
      "Ġsource": 5434,
      "Ġmobile": 5435,
      "ĠÙĨÛģ": 5436,
      "ĠØ§ÙĦØ¹Ø±Ø§ÙĤ": 5437,
      "Ġlocation": 5438,
      "ĠSa": 5439,
      "And": 5440,
      "]]": 5441,
      "Ø§Ú©": 5442,
      "ĠDay": 5443,
      "dc": 5444,
      "ĠiÃ§in": 5445,
      "à¤¾à¤¨à¥ĩ": 5446,
      "Ġjoin": 5447,
      "ĠØ§ÙĦØ±ÙĬØ§Ø¶": 5448,
      "ĠNorth": 5449,
      "ÙĪÙĦÙī": 5450,
      "Ġearly": 5451,
      "echo": 5452,
      "Us": 5453,
      "Ġren": 5454,
      "Int": 5455,
      "idak": 5456,
      "iece": 5457,
      "Ġà¤¤à¥ĭ": 5458,
      "ĠTra": 5459,
      "Ġfit": 5460,
      "àµ»": 5461,
      "Ġconcern": 5462,
      "à´Łàµįà´Ł": 5463,
      "ĠâĢ¢": 5464,
      "Ġgi": 5465,
      "à´¿à´ķ": 5466,
      ":\"": 5467,
      "Ġpain": 5468,
      "ĠØ§ÙĦØªØ¬": 5469,
      "Ġwar": 5470,
      "begin": 5471,
      "ĠØ£Ø´": 5472,
      "Ġ+=": 5473,
      "ĠØ¬Ø¯ÙĬØ¯Ø©": 5474,
      "Ġnag": 5475,
      "Ġà¤ķà¤¹": 5476,
      "à¦¿à¦°": 5477,
      "Ġconditions": 5478,
      "Ġmiss": 5479,
      "though": 5480,
      "151": 5481,
      "oved": 5482,
      "Ġ${": 5483,
      "ipping": 5484,
      "Ġdiv": 5485,
      "ista": 5486,
      "ÙĥØ«Ø±": 5487,
      "ĠMarch": 5488,
      "img": 5489,
      "lat": 5490,
      "Ø§ÙĨØ§Øª": 5491,
      "gal": 5492,
      "ĠService": 5493,
      "ĠÙĪØ¯": 5494,
      "119": 5495,
      "ÙħÙĪØ¹Ø©": 5496,
      "àµ¾": 5497,
      "default": 5498,
      "ÙĪØ´": 5499,
      "igen": 5500,
      "Ġproduction": 5501,
      "Ð°Ð²": 5502,
      "Ġitem": 5503,
      "Fe": 5504,
      "icon": 5505,
      "ola": 5506,
      "\"}": 5507,
      "Ġsche": 5508,
      "Ġeverything": 5509,
      "ĠFacebook": 5510,
      "OW": 5511,
      "ador": 5512,
      "ĠØ¨Ø£ÙĨ": 5513,
      "iones": 5514,
      "ĠDesign": 5515,
      ">>": 5516,
      "Gener": 5517,
      "lin": 5518,
      "Ġclose": 5519,
      "Ø§Ø¨ÙĦ": 5520,
      "When": 5521,
      "à¦Ĥ": 5522,
      "ÙĪØ¬Ùĩ": 5523,
      "147": 5524,
      "uer": 5525,
      "Ġfeature": 5526,
      "aki": 5527,
      "Ġbeautiful": 5528,
      "Ġphone": 5529,
      "ĠØ£Ø¯": 5530,
      "Ø§Ø³Ùħ": 5531,
      "Ġchanges": 5532,
      "Ġfive": 5533,
      "ĠChina": 5534,
      "alm": 5535,
      "idge": 5536,
      "çŁ": 5537,
      "ĠUK": 5538,
      "åĵģ": 5539,
      "Ġstock": 5540,
      "first": 5541,
      "uge": 5542,
      "Ġdeg": 5543,
      "ĠĠĠĠĊ": 5544,
      "cast": 5545,
      "arb": 5546,
      "æľĪ": 5547,
      "ÙĦÙĬØ§Øª": 5548,
      "ĠØ§ÙĦØ§": 5549,
      "airs": 5550,
      "ĠÙħØ¹Ø¯": 5551,
      "icrosoft": 5552,
      "chan": 5553,
      "ãģ¡": 5554,
      "Ġengine": 5555,
      "alar": 5556,
      "inding": 5557,
      "à¤¿à¤µ": 5558,
      "ĠØ°Ø§Øª": 5559,
      "ĠMus": 5560,
      "ÙĪØ³Ø·": 5561,
      "aux": 5562,
      "ĠSub": 5563,
      "142": 5564,
      "ĠØ¨Ø¥": 5565,
      "ĠØ§ÙĪ": 5566,
      "anning": 5567,
      "Ġ&&": 5568,
      "yth": 5569,
      "Ġwriting": 5570,
      "à§įà¦¬": 5571,
      "_F": 5572,
      "ĠTop": 5573,
      "trans": 5574,
      "true": 5575,
      "iddle": 5576,
      "ĠÙĪÙĦÙĥÙĨ": 5577,
      "EO": 5578,
      "ãĤ¿": 5579,
      "Ġlatest": 5580,
      "Ġsuggest": 5581,
      "Ġbuilding": 5582,
      "ĠØªÙĥ": 5583,
      "à¤¾à¤ı": 5584,
      "ovember": 5585,
      "ota": 5586,
      "rating": 5587,
      "Ġdidn": 5588,
      "ĠDon": 5589,
      "ĉĉĉĉĉĉĉĉ": 5590,
      "Ð¸ÑĤÑĮ": 5591,
      "Ã©d": 5592,
      "Ġcenter": 5593,
      "Ġhistory": 5594,
      "zen": 5595,
      "ĠAnda": 5596,
      "ÙĤØ¨": 5597,
      "View": 5598,
      "idden": 5599,
      "åģ": 5600,
      "Ø¬ÙĨ": 5601,
      "Price": 5602,
      "Ġcomfort": 5603,
      "ĠĠĠĠĠĠĠĠĠĠ": 5604,
      "ĠIndia": 5605,
      "Ġbab": 5606,
      "Ġà¤¸à¤ķ": 5607,
      "Ġfig": 5608,
      "ãģ¤": 5609,
      "Ġmark": 5610,
      "Ġcontinue": 5611,
      ".r": 5612,
      "itude": 5613,
      "113": 5614,
      "Ġtaking": 5615,
      "yr": 5616,
      "Ø§Ø¦ÙħØ©": 5617,
      "upt": 5618,
      "ĠApp": 5619,
      "à¥įà¤¸": 5620,
      "ĠØ¥ÙĦÙĬ": 5621,
      "archar": 5622,
      "é©": 5623,
      "alah": 5624,
      "rip": 5625,
      "Ġvar": 5626,
      ".C": 5627,
      "Ġlib": 5628,
      "à¥įà¤ª": 5629,
      "156": 5630,
      "ĠÙģØ¥ÙĨ": 5631,
      "iger": 5632,
      "ĠArt": 5633,
      "ĠØ§ÙĨØª": 5634,
      "Ġestab": 5635,
      "ilities": 5636,
      "Ð¸Ð»": 5637,
      "EST": 5638,
      "Ġsubject": 5639,
      "Ġhowever": 5640,
      "Ġ**": 5641,
      "ĠSan": 5642,
      "Ġtypes": 5643,
      "Ġensure": 5644,
      "èģ": 5645,
      "Ġfoot": 5646,
      "/*": 5647,
      "Ġquant": 5648,
      "éķ": 5649,
      "ĠÙĥÙĬÙģ": 5650,
      "Ø¹ÙħØ§ÙĦ": 5651,
      "Ġdalam": 5652,
      "ĠPort": 5653,
      "145": 5654,
      "Ġlater": 5655,
      "Ġword": 5656,
      "IA": 5657,
      "ãģĽ": 5658,
      "Ġeval": 5659,
      "Ø±ÙĪØ³": 5660,
      "Ġ$\\": 5661,
      "Ġtask": 5662,
      "Ø±ÙģØ©": 5663,
      "ago": 5664,
      "cember": 5665,
      "ukan": 5666,
      "Ġpod": 5667,
      "Of": 5668,
      "Ġchoose": 5669,
      "unk": 5670,
      "hol": 5671,
      "MA": 5672,
      "Ø®Ø·": 5673,
      "à¦¾à¦¬": 5674,
      "arter": 5675,
      "æ¥": 5676,
      "ĠSie": 5677,
      "Ġblog": 5678,
      "Ġinf": 5679,
      "HE": 5680,
      "148": 5681,
      "ĠÐĴ": 5682,
      "ĠInternational": 5683,
      "address": 5684,
      "-C": 5685,
      "overn": 5686,
      "åħ¬": 5687,
      "part": 5688,
      "ĠPat": 5689,
      "Ġtre": 5690,
      "Ġë": 5691,
      "aman": 5692,
      "aÃ§Ã£o": 5693,
      "public": 5694,
      "Ø¹Ø§Øª": 5695,
      "ecut": 5696,
      "\")": 5697,
      "Ġstaff": 5698,
      "æīĭ": 5699,
      "ĠØ£ØŃØ¯": 5700,
      "vey": 5701,
      "ĠØ¯ÙĪÙĨ": 5702,
      "ĠJune": 5703,
      "UP": 5704,
      "`Ċ": 5705,
      "example": 5706,
      "Ġmodels": 5707,
      "Ġdah": 5708,
      "ØºÙĦ": 5709,
      "Ġdocument": 5710,
      "Ġdoing": 5711,
      "ĠOb": 5712,
      "weet": 5713,
      "/f": 5714,
      "fully": 5715,
      "700": 5716,
      "åıĳ": 5717,
      "adem": 5718,
      "ĠHere": 5719,
      "ĠÐŁ": 5720,
      "yes": 5721,
      "162": 5722,
      "Ġtell": 5723,
      "proper": 5724,
      "color": 5725,
      "Ġareas": 5726,
      "ĠTABLE": 5727,
      "arl": 5728,
      "-based": 5729,
      "ĠMc": 5730,
      "itchen": 5731,
      "à¦£": 5732,
      "ĠØ§Ø´": 5733,
      "Ġà¤¸à¤¾à¤¥": 5734,
      "Ġclick": 5735,
      "Ø³ÙĨ": 5736,
      "ÛĮØ²": 5737,
      "Ġbox": 5738,
      "Ġadditional": 5739,
      "nc": 5740,
      "MT": 5741,
      ".append": 5742,
      "Ø±ÙĪØ·": 5743,
      "Ġà¤ªà¤¹": 5744,
      "ĠPa": 5745,
      "Ġadded": 5746,
      "Ġfriends": 5747,
      "Ġten": 5748,
      "BE": 5749,
      "My": 5750,
      "-F": 5751,
      "Ġ!=": 5752,
      "Ġbil": 5753,
      "config": 5754,
      "Ġparam": 5755,
      "_epoch": 5756,
      "èĢħ": 5757,
      "Ġsich": 5758,
      "Ġstore": 5759,
      ";;": 5760,
      "lu": 5761,
      "ãĥ¬": 5762,
      "à¦¾à¦¸": 5763,
      "Ġclaim": 5764,
      "CR": 5765,
      "agram": 5766,
      "ÙĤØ§ÙĦØ§Øª": 5767,
      "Ġsomeone": 5768,
      "ĠØ£Ùģ": 5769,
      "rew": 5770,
      "143": 5771,
      "Ġrelated": 5772,
      "Ġstarted": 5773,
      "ĠÙĪØ´": 5774,
      "Ġseb": 5775,
      "input": 5776,
      "124": 5777,
      "Ġarray": 5778,
      "Ġlikely": 5779,
      "ĠØ³Ùħ": 5780,
      "aga": 5781,
      "////": 5782,
      "illion": 5783,
      "Ġsimply": 5784,
      "à¦¾à¦¤": 5785,
      "PE": 5786,
      "Ġoutput": 5787,
      "ĠBen": 5788,
      "Ġà´ªàµįà´°": 5789,
      "itÃł": 5790,
      "Ġlevels": 5791,
      "Ø³ÙĦ": 5792,
      "Ġdesigned": 5793,
      "ÙĪØ§Ø¨": 5794,
      "Ġinvestig": 5795,
      "ĠÙĦÙĩØ§": 5796,
      "ĠGroup": 5797,
      "Ġaf": 5798,
      "ÙĪÙĤÙģ": 5799,
      "coming": 5800,
      "Ø§Ø®ÙĦ": 5801,
      "ondon": 5802,
      "lim": 5803,
      "sk": 5804,
      "azon": 5805,
      "Ġblood": 5806,
      "idade": 5807,
      "Ø±Ùħ": 5808,
      "é£": 5809,
      "pha": 5810,
      "aker": 5811,
      "Ġincludes": 5812,
      "à¤¾à¤ķ": 5813,
      "Ġsett": 5814,
      "Ġecho": 5815,
      "Ġrecommend": 5816,
      "Ñĸ": 5817,
      "éĿ¢": 5818,
      "plied": 5819,
      "Ġhol": 5820,
      "220": 5821,
      "izes": 5822,
      "mercial": 5823,
      "ycl": 5824,
      "ington": 5825,
      "ĠÙĪÙĤØ¯": 5826,
      "larÄ±": 5827,
      "ĠĠĊ": 5828,
      "Ġeither": 5829,
      "negate": 5830,
      "Ø¦ÛĮ": 5831,
      "ĠnÃ£o": 5832,
      "Ġsyn": 5833,
      "ĠĊĊ": 5834,
      "Ø¶Ø§Ø¡": 5835,
      "ĠJust": 5836,
      "ãĤ·": 5837,
      "Ø·Ø¨": 5838,
      "Ġ<-": 5839,
      "Ø§ÙĦÙĥ": 5840,
      "enced": 5841,
      "Ġdigital": 5842,
      "Ġrap": 5843,
      "âĢ¢": 5844,
      "\"><": 5845,
      "ĠØ§ÙĦØ§Ùħ": 5846,
      "010": 5847,
      "Ø±Ø§": 5848,
      "Ġresponse": 5849,
      "118": 5850,
      "154": 5851,
      "ÙĥØªØ¨": 5852,
      "Ø¨Ø·": 5853,
      "IST": 5854,
      "ĠÚ©ÙĨ": 5855,
      "uration": 5856,
      "Ġsont": 5857,
      "à§ĩà¦ķ": 5858,
      "XX": 5859,
      "Ġwind": 5860,
      "ĠÚ©Ø±Ø¯": 5861,
      "Ġwhite": 5862,
      "[\"": 5863,
      "race": 5864,
      "ĠServices": 5865,
      "Ġprec": 5866,
      "path": 5867,
      "****************": 5868,
      "ĠÙĬØ´": 5869,
      "ØºØ©": 5870,
      "Ø¯ÙĬØ«": 5871,
      "ĠEnglish": 5872,
      "UM": 5873,
      "Ġà¦ī": 5874,
      "edia": 5875,
      "ÙĩØ§Ø¨": 5876,
      "ald": 5877,
      "Ð½ÑĭÑħ": 5878,
      "ĠĠĠĠĠĠĠĠĠĠĠĠĠĠĠĠĠĠĠĠĠ": 5879,
      "ÑĤÐ¸": 5880,
      "Ġaccept": 5881,
      "360": 5882,
      "Ġsecurity": 5883,
      "020": 5884,
      "Ġà¦¬à¦¿à¦": 5885,
      "CL": 5886,
      "Ġà¤¥à¤¾": 5887,
      "object": 5888,
      "ĠView": 5889,
      "ĠØ¬Ø§ÙĨ": 5890,
      "Dis": 5891,
      "Ġnak": 5892,
      "Ġstandard": 5893,
      "tes": 5894,
      "Ġneeded": 5895,
      "à´¿à´²àµį": 5896,
      "ĠØ§ÙĦØ¹Ø§ÙħØ©": 5897,
      "ä½ĵ": 5898,
      "à´£àµįà´Ł": 5899,
      "Ø§Ø¸": 5900,
      "Ġevents": 5901,
      "aks": 5902,
      "itation": 5903,
      "ĠDet": 5904,
      "ville": 5905,
      "ector": 5906,
      "Ġlen": 5907,
      "åĬĽ": 5908,
      "ceed": 5909,
      "Ġprices": 5910,
      "138": 5911,
      "iva": 5912,
      "Ġprior": 5913,
      "ained": 5914,
      "Ø¯ÙħØ©": 5915,
      "_v": 5916,
      "Ġsales": 5917,
      "éļ": 5918,
      "Ġsolution": 5919,
      "Ġmarketing": 5920,
      "annel": 5921,
      "ched": 5922,
      "ĠBro": 5923,
      "åº¦": 5924,
      "Ġrequest": 5925,
      "group": 5926,
      "170": 5927,
      "Ġà¤ķà¤¾à¤°": 5928,
      "/j": 5929,
      "ÑİÑĤ": 5930,
      "164": 5931,
      "ÙĨÙī": 5932,
      "Ġsaf": 5933,
      "Ġcompl": 5934,
      "ĠÂ£": 5935,
      "wood": 5936,
      "ML": 5937,
      "ĠØ¨Ùĥ": 5938,
      "ĠDepartment": 5939,
      "ĠÙĪÙĤØ§ÙĦ": 5940,
      "];Ċ": 5941,
      "Ġobserv": 5942,
      "Ø¹ÙĬ": 5943,
      "Ġdog": 5944,
      "Ġissue": 5945,
      "ĠHouse": 5946,
      "135": 5947,
      "139": 5948,
      "opyright": 5949,
      "Ġliving": 5950,
      "encies": 5951,
      "Ġveh": 5952,
      "ĠØ¨Ø§Ø±": 5953,
      "à¥ĥ": 5954,
      "Ġmemb": 5955,
      "ĠPlease": 5956,
      "Ġaffect": 5957,
      "Ð¼Ð¸": 5958,
      "éĥ¨": 5959,
      "à¤¾à¤ª": 5960,
      "])Ċ": 5961,
      "ĠØ§ÙĦØ´Ø±": 5962,
      "Ġdeliver": 5963,
      "aced": 5964,
      "ras": 5965,
      "uj": 5966,
      "ĠRec": 5967,
      "Ġseen": 5968,
      "ospital": 5969,
      "Ġdescrib": 5970,
      "ĠÙĩÙĨØ§Ùĥ": 5971,
      "ĠSci": 5972,
      "Ð½ÑĭÐµ": 5973,
      "Ġknowledge": 5974,
      "004": 5975,
      "mod": 5976,
      "Eng": 5977,
      "Ø¶Ø§ÙģØ©": 5978,
      "Ġoriginal": 5979,
      "åĲĮ": 5980,
      "ĠDevelop": 5981,
      "ĠElect": 5982,
      "_list": 5983,
      "ĠRed": 5984,
      "Ø¬Ø²": 5985,
      "ria": 5986,
      "plit": 5987,
      "coin": 5988,
      "clude": 5989,
      "àµģà´®": 5990,
      "udi": 5991,
      "141": 5992,
      "Ġproblems": 5993,
      "Ġfre": 5994,
      "å§": 5995,
      "ÙĪÙĦÙĪØ¬": 5996,
      "gt": 5997,
      "Ġwords": 5998,
      ".;": 5999,
      "Ġshows": 6000,
      "Ø¨Ø§ØŃ": 6001,
      "è¶": 6002,
      "Ġlength": 6003,
      "Ġreading": 6004,
      "ĠJuly": 6005,
      "(c": 6006,
      "Ġdifficult": 6007,
      "à¤ķà¥Ģ": 6008,
      "cel": 6009,
      "ĠØ¥ÙĦØ§": 6010,
      "ĠØ§ÙĦØ¹ÙĦ": 6011,
      "Ġoffice": 6012,
      "ĠData": 6013,
      "Ġhindi": 6014,
      "hel": 6015,
      "ĠØ§ÙĦØ¥Ø³ÙĦØ§Ùħ": 6016,
      "Ġple": 6017,
      "flow": 6018,
      "){Ċ": 6019,
      "-up": 6020,
      "Ġcollect": 6021,
      "oe": 6022,
      "Ġwhole": 6023,
      "ffff": 6024,
      "Ġdin": 6025,
      "ibrary": 6026,
      "hat": 6027,
      "æīĢ": 6028,
      "Ġclient": 6029,
      "agg": 6030,
      "ĠSur": 6031,
      "Ġannoun": 6032,
      "ï¼Ł": 6033,
      "Ġgel": 6034,
      "Ġinside": 6035,
      "Ġlearning": 6036,
      "ÙĬØ¯ÙĬÙĪ": 6037,
      "-P": 6038,
      "Ġblock": 6039,
      "ugh": 6040,
      "igin": 6041,
      "Ġthough": 6042,
      "ĠAU": 6043,
      "ØªØ±Ùĥ": 6044,
      "005": 6045,
      "155": 6046,
      "à¥įà¤¹": 6047,
      "å·¥": 6048,
      "pat": 6049,
      "ãģ¿": 6050,
      "iring": 6051,
      "Ġpet": 6052,
      "126": 6053,
      "ĠØ§ÙĦØªÙĪ": 6054,
      "Ġrefer": 6055,
      "à¤Ĺà¤¾": 6056,
      "sch": 6057,
      "Ġnicht": 6058,
      "function": 6059,
      "Ġcells": 6060,
      "ĠDav": 6061,
      "Ġtw": 6062,
      "Ø¹ÙĦÙĨ": 6063,
      "-n": 6064,
      "(int": 6065,
      "_to": 6066,
      "Ġsen": 6067,
      "ĠÄ°": 6068,
      "rive": 6069,
      "Ø¹Ø±Ø¶": 6070,
      "Ġhair": 6071,
      "Ġmap": 6072,
      "ĠCas": 6073,
      "ĠØ§ÙĦØ£Ø®Ø¨Ø§Ø±": 6074,
      "FE": 6075,
      "dom": 6076,
      "Ġà¤Ĺà¤¯à¤¾": 6077,
      "Ġaverage": 6078,
      "Ġanswer": 6079,
      "Ġfeed": 6080,
      "_B": 6081,
      "Ġbes": 6082,
      "ÙĪØ¨Ø±": 6083,
      "Ð¸Ñģ": 6084,
      "Ġ:Ċ": 6085,
      "ĠÙĪØ§ÙĦØ¹": 6086,
      "å¥½": 6087,
      "Ġaccording": 6088,
      "ĠØ§ÙĦØ§Ø®": 6089,
      "ĠØ¨Ø±Ø§ÛĮ": 6090,
      "Ø±ÙĬÙħ": 6091,
      "_count": 6092,
      "Ġdapat": 6093,
      "ruary": 6094,
      "ĠØ¨Ú¾ÛĮ": 6095,
      "ĠØ§ÛĮÚ©": 6096,
      "175": 6097,
      "\">Ċ": 6098,
      "field": 6099,
      "itar": 6100,
      "ĠInt": 6101,
      "ĠØ§Ø¬": 6102,
      "ĠÙĪÙĤØª": 6103,
      "Ġmodern": 6104,
      "isf": 6105,
      "ØµÙĪØ±": 6106,
      "Ġchoice": 6107,
      "Ġcondition": 6108,
      "Ã©c": 6109,
      "Ġaux": 6110,
      "àµģà´¤": 6111,
      "Ø±ÙĬÙĤØ©": 6112,
      "ĠØ§ÙĦØ£ÙħØ±ÙĬÙĥ": 6113,
      "Ġsend": 6114,
      "content": 6115,
      "FD": 6116,
      "bor": 6117,
      "Ġnom": 6118,
      "Ġcreated": 6119,
      "Ġinsurance": 6120,
      "ãĥ³ãĥ": 6121,
      "350": 6122,
      "Ġcalcul": 6123,
      "SP": 6124,
      "_file": 6125,
      "Ġeffective": 6126,
      "itting": 6127,
      "éĢļ": 6128,
      "OM": 6129,
      ".x": 6130,
      "149": 6131,
      "\\\":\\\"": 6132,
      "ĠØ§ÙĦØµÙĬÙĨ": 6133,
      "Ġdouble": 6134,
      "Ġessay": 6135,
      "Ð´Ð°": 6136,
      "Ġdisplay": 6137,
      "Info": 6138,
      "Ġsel": 6139,
      "Ġill": 6140,
      "nt": 6141,
      "Ġinfo": 6142,
      "Ġà¦ĵ": 6143,
      "Ġscreen": 6144,
      "ayan": 6145,
      "Ø±ÙĬÙģ": 6146,
      "181": 6147,
      "ĠIns": 6148,
      "amily": 6149,
      "cf": 6150,
      "ĠAustral": 6151,
      "Ġcomplex": 6152,
      "à¦¾à¦ĩ": 6153,
      "\"ĊĊ": 6154,
      "Ġstructure": 6155,
      "ĠØ¨ÙĬ": 6156,
      "Ð¾Ð¿": 6157,
      "point": 6158,
      "kl": 6159,
      "rict": 6160,
      "ÎĳÎ": 6161,
      ".e": 6162,
      "Ġequipment": 6163,
      "ATION": 6164,
      "ä½¿": 6165,
      "@@": 6166,
      "Ø§Ø°Ø§": 6167,
      "Ø§ÙĪÙĨ": 6168,
      "ä¹Ł": 6169,
      "ÙĤÙĬÙĤØ©": 6170,
      "Ġporn": 6171,
      "more": 6172,
      "Ġplayers": 6173,
      "ĠØ§ÙĦØ³ÙĦ": 6174,
      "ĠØ§ÙĦØ¥ÙĨ": 6175,
      "yon": 6176,
      "oma": 6177,
      "137": 6178,
      "Ġdrug": 6179,
      "136": 6180,
      "240": 6181,
      "ithub": 6182,
      "ĠSeptember": 6183,
      "Ø¶Ø©": 6184,
      "ØºØ·": 6185,
      "ä¸ļ": 6186,
      "ÙĬØ§Ø©": 6187,
      "cing": 6188,
      "Ø³Ø±Ø§Ø¦ÙĬÙĦ": 6189,
      "_re": 6190,
      "ĠÙĬØ³": 6191,
      "ĠÙħÙģ": 6192,
      "sl": 6193,
      "OP": 6194,
      "Ġemb": 6195,
      "top": 6196,
      "_size": 6197,
      "131": 6198,
      "Ø§ÙĨÛĮ": 6199,
      "Ġbad": 6200,
      "Ø¨Ø±Ø§ÙĬØ±": 6201,
      "Am": 6202,
      "Ġeine": 6203,
      "estamp": 6204,
      "Ø§ÙĦØ¹": 6205,
      "ĠAugust": 6206,
      "Ġfem": 6207,
      "Ġrecent": 6208,
      "210": 6209,
      "åĨħ": 6210,
      "Ġsepar": 6211,
      "El": 6212,
      "ĠÙħÙĩ": 6213,
      "Ġsell": 6214,
      "Ð½Ð¾ÑģÑĤ": 6215,
      "Ap": 6216,
      "Ġà¤ħà¤¨": 6217,
      "True": 6218,
      "ĠÂ·": 6219,
      "ĠAv": 6220,
      "Ġcases": 6221,
      "Ð½Ð¾Ð¹": 6222,
      "Ġapply": 6223,
      "Ġnormal": 6224,
      "ework": 6225,
      "à§ģà¦": 6226,
      "Ø²Ùħ": 6227,
      "ĠØ§ÙĦÙģØ±": 6228,
      "è·": 6229,
      "Ø§ÙħØ¹Ø©": 6230,
      "153": 6231,
      "lebr": 6232,
      "omb": 6233,
      "à¤¿à¤¯à¥ĭà¤Ĥ": 6234,
      "Ġcand": 6235,
      "Ġaus": 6236,
      "ĠØ§ÙĦÙĪÙĤ": 6237,
      "ila": 6238,
      "Ġ)Ċ": 6239,
      "åĲİ": 6240,
      "133": 6241,
      "ØºØ±": 6242,
      "ris": 6243,
      "elcome": 6244,
      "igned": 6245,
      "ĠĠĠĠĠĠĠĠĠĠĠĠĠĠĠĠĠĠĠĠĠĠĠĠĠ": 6246,
      "ĠØ§ÙĦØ°ÙĩØ¨": 6247,
      "129": 6248,
      "Ġtakes": 6249,
      "à¦¿à¦²": 6250,
      "ĠØ·ØŃÙĨ": 6251,
      "obre": 6252,
      "Ġentire": 6253,
      "Ġtook": 6254,
      "ĠØªØ±Ùĥ": 6255,
      "Ġwor": 6256,
      "Ġpin": 6257,
      "Count": 6258,
      "158": 6259,
      "nen": 6260,
      "Ø§ÙĬ": 6261,
      "ØŃØ§Øª": 6262,
      "Ġtidak": 6263,
      "è¡¨": 6264,
      "Ġusually": 6265,
      "Ġofficial": 6266,
      "ipe": 6267,
      "ĠLo": 6268,
      "_time": 6269,
      "ully": 6270,
      "ĠCounty": 6271,
      "`,`": 6272,
      "Ġimplement": 6273,
      "Ġsou": 6274,
      "Ġlab": 6275,
      "PI": 6276,
      "``": 6277,
      "Sub": 6278,
      "adas": 6279,
      "ĠØ§ÙĦØ§Ø¬ØªÙħØ§Ø¹": 6280,
      "|Ċ": 6281,
      "light": 6282,
      "ÐµÑģ": 6283,
      "Ġbah": 6284,
      "ioni": 6285,
      "ãĤı": 6286,
      "ds": 6287,
      "ãģĦãĤĭ": 6288,
      "));Ċ": 6289,
      "ĠÙģÙĤØ·": 6290,
      "à¥ĩà¤²": 6291,
      "à§ģà¦²": 6292,
      "ĠØ§ÙĦÙħÙĩ": 6293,
      "Ġwait": 6294,
      "With": 6295,
      "dan": 6296,
      "å»": 6297,
      "posit": 6298,
      "Ø§ÙĨØ§": 6299,
      "ĠÙĩÙĦ": 6300,
      "phone": 6301,
      "ĠÙĩØ§ÛĮ": 6302,
      "Ġcame": 6303,
      "Ġjug": 6304,
      "Ø²ÙĬØ²": 6305,
      "Ġcontract": 6306,
      "132": 6307,
      ".set": 6308,
      "inger": 6309,
      "ĠÙħØ´Ø§Ø±": 6310,
      "å¿ĥ": 6311,
      "ĠØ£Ø®Ø±Ùī": 6312,
      "ead": 6313,
      "308": 6314,
      "Ġmessage": 6315,
      "Ġsafe": 6316,
      "ĠType": 6317,
      "parent": 6318,
      "ĠØ¨ÙĨØ§": 6319,
      "ĠØ²ÙĬ": 6320,
      "ached": 6321,
      "_ID": 6322,
      "irus": 6323,
      "Ġà¦¹à¦¯à¦¼": 6324,
      "ln": 6325,
      "Ġterms": 6326,
      "root": 6327,
      ".T": 6328,
      "rica": 6329,
      "Ø¹Ø¯ÙĬÙĨ": 6330,
      "Our": 6331,
      "åĮĸ": 6332,
      "ads": 6333,
      "ĠØ§ÙĦØ¥Ùħ": 6334,
      "illed": 6335,
      "ishing": 6336,
      "ĠØªÚ¾": 6337,
      "Ġvot": 6338,
      "æĻĤ": 6339,
      "total": 6340,
      "Ø§Ø¦Ùħ": 6341,
      "prise": 6342,
      "Ġrates": 6343,
      "ĠØ§ÙĦØ¨ØŃ": 6344,
      "\");Ċ": 6345,
      "ç©": 6346,
      "çĤ¹": 6347,
      "illa": 6348,
      "ĠÙĪØ²ÙĬØ±": 6349,
      "More": 6350,
      "ĠBook": 6351,
      "ende": 6352,
      "Ġà¦Ń": 6353,
      "amin": 6354,
      "ige": 6355,
      "bi": 6356,
      "Ø²Ø¨": 6357,
      "aran": 6358,
      "ĠSome": 6359,
      "HT": 6360,
      "ĠST": 6361,
      "ĠÙĪØ§ÙĦØ¥": 6362,
      "Sc": 6363,
      "Ġenhance": 6364,
      "Ġaltern": 6365,
      "Ã§a": 6366,
      "ÙħÙĬÙĦ": 6367,
      "Ġmaintain": 6368,
      "ĠÐ¿ÑĢÐ¸": 6369,
      "ĠØ§ÙĦÙħÙĪÙĤØ¹": 6370,
      "ĠMod": 6371,
      "çĽ®": 6372,
      "ĠÛĮÛģ": 6373,
      "à´ķàµįà´": 6374,
      "Ġà¤ľà¥ĭ": 6375,
      "ĠØ§ÙĦØªÙĤ": 6376,
      "Ġexpected": 6377,
      "ÑĢÐ¸": 6378,
      "Code": 6379,
      "Ġnos": 6380,
      "ĠÐ¡": 6381,
      "äºİ": 6382,
      "ØªÙĤ": 6383,
      "EA": 6384,
      "Ġir": 6385,
      "From": 6386,
      "olution": 6387,
      "Ġstring": 6388,
      "Ġ.Ċ": 6389,
      "ĠÃ©t": 6390,
      "Ġko": 6391,
      "åĬł": 6392,
      "043": 6393,
      "Ġile": 6394,
      "æĸĩ": 6395,
      "Ġintrodu": 6396,
      "ĠÙĦÙĤ": 6397,
      "Ġboard": 6398,
      "Ø¬ÙĨØ©": 6399,
      "Ġinitial": 6400,
      "159": 6401,
      "Ġsix": 6402,
      "Ð°Ð»ÑĮ": 6403,
      "ĠOver": 6404,
      "à¤¸à¥Ģ": 6405,
      "EL": 6406,
      "ĠØ¬ÙĪ": 6407,
      "Ġeffort": 6408,
      "ĠTrue": 6409,
      "Ø§Ø¯Ø§Øª": 6410,
      "157": 6411,
      "ĠJanuary": 6412,
      "éĤ": 6413,
      "Ġmaterials": 6414,
      "Ġcause": 6415,
      "æį": 6416,
      "\",čĊ": 6417,
      "uest": 6418,
      "ÄŁÄ±": 6419,
      "ĠDirect": 6420,
      "à°": 6421,
      "ÙĪÙĬØª": 6422,
      "ĠÙĪØ·": 6423,
      "])": 6424,
      "571": 6425,
      "Ġsun": 6426,
      "Check": 6427,
      "urt": 6428,
      "inder": 6429,
      "acing": 6430,
      "zz": 6431,
      "state": 6432,
      "venue": 6433,
      "Ġyap": 6434,
      "\\\",\\\"": 6435,
      "ĠOctober": 6436,
      "Ġdies": 6437,
      "ened": 6438,
      "score": 6439,
      "Ġexact": 6440,
      "??": 6441,
      "di": 6442,
      "Ġelement": 6443,
      "ĠAnal": 6444,
      "Ø¹Ø§Ø¯Ø©": 6445,
      "ĠStreet": 6446,
      "à§ĩà¦²": 6447,
      "Ġhor": 6448,
      "ĠRel": 6449,
      "Ġra": 6450,
      "-se": 6451,
      "ĠØ§Ø¯": 6452,
      "ĠRuntime": 6453,
      "\\_": 6454,
      "Ġregul": 6455,
      ".A": 6456,
      "vention": 6457,
      "una": 6458,
      "Ġtaken": 6459,
      "Ø§ÙĦØ«": 6460,
      "Ġsin": 6461,
      "________": 6462,
      "Ø±ÙĬØ¨": 6463,
      "Ġakan": 6464,
      "lor": 6465,
      "Ġmis": 6466,
      "Ġgold": 6467,
      "ĠØ¯Ø§Ø±": 6468,
      "Ġq": 6469,
      "struct": 6470,
      "oms": 6471,
      "Ã¼k": 6472,
      "ĠPlay": 6473,
      "description": 6474,
      "Ø¯ÙĬÙĪ": 6475,
      "Ġassociated": 6476,
      "imm": 6477,
      "Ã§Ãµes": 6478,
      "Ø³Ø§Øª": 6479,
      "Ġcompon": 6480,
      "ĠInformation": 6481,
      "ĠÙĨØ´": 6482,
      "amples": 6483,
      "bit": 6484,
      "006": 6485,
      "ĠRem": 6486,
      "ĠØµÙģ": 6487,
      "Ġtools": 6488,
      "ĠDec": 6489,
      "ĠØ§Ø¨ÙĨ": 6490,
      "Ġearn": 6491,
      "Ġà¤ĺ": 6492,
      "Ġbus": 6493,
      "mark": 6494,
      "uth": 6495,
      "Ġcontr": 6496,
      "ĠCap": 6497,
      "âĢĻest": 6498,
      "rier": 6499,
      "iro": 6500,
      "arant": 6501,
      "Ġbonus": 6502,
      "Ġmultiple": 6503,
      "Ġessential": 6504,
      "-A": 6505,
      "ĠØŃØ§ÙĦ": 6506,
      "Ġyourself": 6507,
      "à´¦": 6508,
      "Ġsuff": 6509,
      "Ġtemper": 6510,
      "Ġreceive": 6511,
      "éĥ½": 6512,
      "320": 6513,
      "ĠØ§ÙĦØ°ÙĬÙĨ": 6514,
      "Ġhalf": 6515,
      "ĠÑĢÐµ": 6516,
      "Ġseek": 6517,
      "ided": 6518,
      "ÙĬØ§Ùħ": 6519,
      "Ġà¤¹à¤®": 6520,
      "Ġwide": 6521,
      "ĠProgram": 6522,
      "Ġcorrect": 6523,
      "Ġpal": 6524,
      "ĠØ£Øµ": 6525,
      "atives": 6526,
      "CF": 6527,
      "ĠmÃ¡s": 6528,
      "Ġthird": 6529,
      "ÙĪØ±ÙĬØ§": 6530,
      "Ġrow": 6531,
      "Ġdemand": 6532,
      "ĠSet": 6533,
      "Ġprefer": 6534,
      "hold": 6535,
      "Mar": 6536,
      "NO": 6537,
      "asc": 6538,
      "à¤ķà¤¾à¤°": 6539,
      "Ø°ÙĥØ±": 6540,
      "à¤Ĥà¤¡": 6541,
      "à¦¶": 6542,
      "Ġactivity": 6543,
      "plication": 6544,
      "æŁ": 6545,
      "_g": 6546,
      "ĠÙħØµÙĨØ¹": 6547,
      "àµįà´³": 6548,
      "azing": 6549,
      "Ġdumpster": 6550,
      "ĠÐ¸Ð·": 6551,
      "Ġskills": 6552,
      "Ġweeks": 6553,
      ".add": 6554,
      "Ø§ÙģØ¸": 6555,
      "leri": 6556,
      "ØµÙĪØµ": 6557,
      "ĠØ§ÙĦØ¯Ø±": 6558,
      "168": 6559,
      "Ġconsist": 6560,
      "Ġsoon": 6561,
      "Ġvariety": 6562,
      "Ġidea": 6563,
      "Ġmedical": 6564,
      "Ġregular": 6565,
      "Ø§Ø¹Ø¯Ø©": 6566,
      "Ġsave": 6567,
      "ÐµÐ½Ð¸Ðµ": 6568,
      "numer": 6569,
      "ĠFirst": 6570,
      "Field": 6571,
      "ĠØ§ÙĦØ¢ÙĨ": 6572,
      "ÙĩÙĪØ±": 6573,
      "Ġinternational": 6574,
      "189": 6575,
      "ĠØ§ÙĦØ£ØŃ": 6576,
      "aving": 6577,
      "ĠØ§ÙĦÙħØ²ÙĬØ¯": 6578,
      "ØªØ¨Ø±": 6579,
      "XA": 6580,
      "222": 6581,
      "ÙĤØ¨ÙĦ": 6582,
      "esis": 6583,
      "Ð³Ð¾": 6584,
      "Ġfrequ": 6585,
      "Ġib": 6586,
      "Ĥ¬": 6587,
      "Ġfire": 6588,
      "ĠCour": 6589,
      "Ġespecially": 6590,
      "Ð½Ð¾Ð³Ð¾": 6591,
      "kat": 6592,
      "Ø§Ø¨Ø·": 6593,
      "Ø§Ø¦ÙĤ": 6594,
      "Ġindividuals": 6595,
      "ĠCA": 6596,
      "ĠNovember": 6597,
      "uid": 6598,
      "çĿ": 6599,
      "171": 6600,
      "Error": 6601,
      "Ġfall": 6602,
      "So": 6603,
      "ÑĤÑĮ": 6604,
      "ellow": 6605,
      "-year": 6606,
      "å¾Ĺ": 6607,
      "Ġways": 6608,
      "ungen": 6609,
      "ÑĢÐ¾Ð²": 6610,
      "Ġready": 6611,
      "Ġcurrently": 6612,
      "}$": 6613,
      "ĠCam": 6614,
      "Ġacqu": 6615,
      "QU": 6616,
      "mon": 6617,
      "ĠDie": 6618,
      "ĠGod": 6619,
      "Ġstop": 6620,
      "Ġba": 6621,
      "ÙħÙĦÙĥØ©": 6622,
      "ĠĠĠĠĠĠĠĠĠĠĠĠĠĠĠĠĠĠĠĠĠĠĠĠĠĠĠĠĠĠĠĠĠĠĠĠĠĠĠĠĠĠĠĠĠĠĠĠĠĠĠĠĠĠĠĠĠĠĠĠĠĠĠĠ": 6623,
      "dir": 6624,
      "mit": 6625,
      "204": 6626,
      "Ġà¤¦à¥ĩ": 6627,
      "Ġses": 6628,
      "ela": 6629,
      "where": 6630,
      "258": 6631,
      "ĠØ£Ø¨ÙĪ": 6632,
      "134": 6633,
      "338": 6634,
      ".log": 6635,
      "ĠØ³Ø¹Ø±": 6636,
      "acks": 6637,
      "Ġsubst": 6638,
      "174": 6639,
      "163": 6640,
      "ĠØ§ÙĦÙģÙĥ": 6641,
      "ĠHol": 6642,
      "anger": 6643,
      "Ġbott": 6644,
      "Ġanything": 6645,
      "None": 6646,
      "ĠManagement": 6647,
      "ĠØ§ÙĦØ«Ø§ÙĨÙĬ": 6648,
      "ĠÙħØ®ØªÙĦÙģ": 6649,
      "ugar": 6650,
      "uis": 6651,
      "Ġ×": 6652,
      "Ġcharg": 6653,
      "Ġleading": 6654,
      "ques": 6655,
      "Ġassist": 6656,
      "éĩĳ": 6657,
      "Ø¨ØŃØ«": 6658,
      "ĠHar": 6659,
      "-D": 6660,
      "ĠKing": 6661,
      "Ġuns": 6662,
      "ĠÙħØ¨Ø§Ø±": 6663,
      "à¦¤à§ĩ": 6664,
      "ĠÙĦÙĦØŃ": 6665,
      "Ġpositive": 6666,
      "aining": 6667,
      "erap": 6668,
      "ØºÙĬ": 6669,
      "Ġfat": 6670,
      "[]": 6671,
      "Line": 6672,
      "Ø§ØµÙĬÙĦ": 6673,
      "ague": 6674,
      ".D": 6675,
      "ĠTest": 6676,
      "008": 6677,
      "ĠØ¹ÙĦÙĬÙĩØ§": 6678,
      "à´Ļàµįà´Ļà´³": 6679,
      "Ġdevice": 6680,
      "Off": 6681,
      "åĽŀ": 6682,
      "=$": 6683,
      "\"]": 6684,
      "146": 6685,
      "mat": 6686,
      "Man": 6687,
      "Ġpurchase": 6688,
      "Ġpark": 6689,
      "uto": 6690,
      "_at": 6691,
      "à¦Ń": 6692,
      "js": 6693,
      "Ġwer": 6694,
      "ĠWindows": 6695,
      "eg": 6696,
      "è£": 6697,
      "cr": 6698,
      "ĠØ´ÙĩØ±": 6699,
      "Ġvarchar": 6700,
      "Ø¶Ùħ": 6701,
      "ĠÛĮÚ©": 6702,
      "Ġsud": 6703,
      "Ġà¦ªà¦°": 6704,
      "larÄ±n": 6705,
      "ĠØ§ÙĦØ¹ÙĦÙħ": 6706,
      "ĠØ§ÙĦØ£Ø®": 6707,
      "ĠØªØ®": 6708,
      "down": 6709,
      "ĠØºØ²Ø©": 6710,
      "Runtime": 6711,
      "ĠOpen": 6712,
      "\"},Ċ": 6713,
      "Ø³Ùĥ": 6714,
      "ĠÙĤØµ": 6715,
      "ãĥķ": 6716,
      "Ġalmost": 6717,
      "ĠÙĬÙĨØ§ÙĬØ±": 6718,
      "Ø§ÙģÙĬØ©": 6719,
      "Ð½ÑĭÐ¹": 6720,
      "Ġassert": 6721,
      "Ġà¦ıà¦ķ": 6722,
      "Ġbenefits": 6723,
      "eto": 6724,
      "PR": 6725,
      "Ġalt": 6726,
      "à´¿à´Ł": 6727,
      "Ġcountries": 6728,
      "ĠMet": 6729,
      "206": 6730,
      "oub": 6731,
      "Ġsolutions": 6732,
      "Ġplayer": 6733,
      "NS": 6734,
      "188": 6735,
      "011": 6736,
      "esso": 6737,
      "Ġmatter": 6738,
      "Ð°ÐµÑĤ": 6739,
      "sm": 6740,
      "iniz": 6741,
      "ĠØ§ÙĦØ¬ÙĨ": 6742,
      "å£": 6743,
      "ä»¬": 6744,
      "incip": 6745,
      "ael": 6746,
      "quare": 6747,
      "Ġreach": 6748,
      "ĠÙĦÙĦØª": 6749,
      "zy": 6750,
      "ĠØ´ÙĬ": 6751,
      "ĠAuthor": 6752,
      "ĠØ¶Ø¯": 6753,
      "230": 6754,
      "Ġmicro": 6755,
      "nbsp": 6756,
      "è¿ĩ": 6757,
      "ãĤ³": 6758,
      "lik": 6759,
      "ĠDecember": 6760,
      "ĠØ±Ùħ": 6761,
      "Ġball": 6762,
      "Ġflow": 6763,
      "ÙĪØ±ÙĪÙĨØ§": 6764,
      "Ġmethods": 6765,
      "comes": 6766,
      "Ø·Ø§Ø±": 6767,
      "xim": 6768,
      "illing": 6769,
      "èĬ": 6770,
      "ĠÐ¶": 6771,
      "Ġchat": 6772,
      "ĠØ§ÙĦÙĩÙĨØ¯": 6773,
      "Class": 6774,
      "ging": 6775,
      "Ġcannot": 6776,
      "Ġappear": 6777,
      "Ġdiet": 6778,
      "gor": 6779,
      "obs": 6780,
      "ĠÙĪÙĥØ§ÙĨ": 6781,
      "Ġvalid": 6782,
      "Ġlocated": 6783,
      "Ġincluded": 6784,
      "Ú¯ÛĮ": 6785,
      "Ġtour": 6786,
      "ĠCH": 6787,
      "187": 6788,
      "ography": 6789,
      "Ø§ÙĬØ©": 6790,
      "ĠON": 6791,
      "ÙĨÛĮ": 6792,
      ".net": 6793,
      "acity": 6794,
      "Ġspeed": 6795,
      "Ġbuh": 6796,
      "ĠÚ©Ø§Ø±": 6797,
      "Ø§ÙĨØ¯": 6798,
      "Ġ(`": 6799,
      "àµģà´ŁàµĨ": 6800,
      "ĠGold": 6801,
      "pond": 6802,
      "values": 6803,
      "Ġ||": 6804,
      "ROM": 6805,
      "Ġinflu": 6806,
      "Ġcollection": 6807,
      "Reg": 6808,
      "å¤©": 6809,
      "pring": 6810,
      "Ġconfig": 6811,
      "bc": 6812,
      "Ø§Ø¡Ø§Øª": 6813,
      "à§įà¦·": 6814,
      "Ø¯ÙħØ§Øª": 6815,
      "bin": 6816,
      "Ġlonger": 6817,
      "áº": 6818,
      "ĠØ¹Ø§ÙĦÙħ": 6819,
      "à¤¾à¤Ĺ": 6820,
      "Ġwrite": 6821,
      "avy": 6822,
      "Ġmask": 6823,
      "ĠProduct": 6824,
      "sych": 6825,
      "å¹³": 6826,
      "à¤¿à¤¶": 6827,
      "ĠØŃÙĦ": 6828,
      "Ġmale": 6829,
      "Ø¤ÙĪÙĦ": 6830,
      "Ġeveryone": 6831,
      "apter": 6832,
      "Ġallows": 6833,
      "Ġbud": 6834,
      "Ġactivities": 6835,
      "Ġrandom": 6836,
      "Ġ\"/": 6837,
      "Ġvs": 6838,
      "ĠProf": 6839,
      "AAAAAAAA": 6840,
      "body": 6841,
      "_IN": 6842,
      "Ġforward": 6843,
      "æĥħ": 6844,
      "401": 6845,
      "char": 6846,
      "Ġboy": 6847,
      "Ġimages": 6848,
      "ĉc": 6849,
      ")ĊĊĊ": 6850,
      "anta": 6851,
      "Ø§Ø¦Ø¨": 6852,
      "165": 6853,
      "à§ģà¦°": 6854,
      "Ġgas": 6855,
      "ilter": 6856,
      "Ġcert": 6857,
      "Ġka": 6858,
      "ĠBu": 6859,
      "fc": 6860,
      "GB": 6861,
      "ãĥĹ": 6862,
      "Ġdraw": 6863,
      "agon": 6864,
      "ĠÑĦ": 6865,
      "Ġsn": 6866,
      "bert": 6867,
      "Ed": 6868,
      "Ġtal": 6869,
      "LECT": 6870,
      "Ġdefault": 6871,
      "è²": 6872,
      "Ġworth": 6873,
      "Ġlegal": 6874,
      "172": 6875,
      "anz": 6876,
      "ãĥŃ": 6877,
      "\"],": 6878,
      "Ġskin": 6879,
      "ĠEv": 6880,
      "ĠĠĠĠĠĠĠĠĠĠĠĠĠĠĠĠĠĠĠĠĠĠĠĠĠĠĠĠĠĠĠĠĠĠĠ": 6881,
      "amos": 6882,
      "å¦Ĥ": 6883,
      "ĠØ§ÙĦØŃØ±": 6884,
      "ĠØ´Ø¨": 6885,
      "Ø¨Ø§Ø¯": 6886,
      "Ġwonder": 6887,
      "ums": 6888,
      "actions": 6889,
      "Ùĳ": 6890,
      "./": 6891,
      "Ġhotel": 6892,
      "Ġerror": 6893,
      "ĠSing": 6894,
      "_pro": 6895,
      "ãĤ«": 6896,
      "rs": 6897,
      "Ġrecogn": 6898,
      "Ø§ÙĨÙĩ": 6899,
      "Ġwent": 6900,
      "450": 6901,
      "Ġ->": 6902,
      "èĪ": 6903,
      "à¤ķà¤¾": 6904,
      "Ġgraph": 6905,
      "ÙĴ": 6906,
      "ĠØ§ÙĦÙģÙĦØ³Ø·ÙĬÙĨ": 6907,
      "Ġexcellent": 6908,
      "Ġparty": 6909,
      "ÙģÙĬØ°": 6910,
      "ĠØªØ¹ÙĦÙĬ": 6911,
      "ĠÙģØ¨Ø±Ø§ÙĬØ±": 6912,
      "izer": 6913,
      "244": 6914,
      "ĠLondon": 6915,
      "Ø¨ÙĬØ±Ø©": 6916,
      "earn": 6917,
      "Ġcash": 6918,
      "ä¸»": 6919,
      "@example": 6920,
      "(d": 6921,
      "ĠMag": 6922,
      "Do": 6923,
      "007": 6924,
      "ØªÙĬÙĨ": 6925,
      "Ø§Ø¹ÙĬ": 6926,
      "Ð¸Ñħ": 6927,
      "Ġeducation": 6928,
      "ĠPolicy": 6929,
      "erve": 6930,
      "ÙĬØ±ÙĬ": 6931,
      "ÙĬØ§Ùĩ": 6932,
      "Ø´Ø©": 6933,
      "opping": 6934,
      "author": 6935,
      "AK": 6936,
      "Ġà¦¥": 6937,
      "Ġideas": 6938,
      "ĠØ§ÙĦÙħÙĦÙĥ": 6939,
      "ĠØ¹Ø¯": 6940,
      "ĠØ§ÙĦØ¥ÙĦÙĥØªØ±ÙĪÙĨÙĬ": 6941,
      "ãĤ¸": 6942,
      "ader": 6943,
      "iforn": 6944,
      "ono": 6945,
      "/v": 6946,
      "Ġord": 6947,
      "ilm": 6948,
      "ĠØ§ÙĦØ§Ø¹": 6949,
      "à§ĩà¦¶": 6950,
      "å¥³": 6951,
      "itan": 6952,
      "Ø¨ÙĬÙĤ": 6953,
      "Ġbelieve": 6954,
      "edi": 6955,
      "post": 6956,
      "But": 6957,
      "ĠØ£ÙĤ": 6958,
      "Ġarch": 6959,
      "±àµĨ": 6960,
      "ummary": 6961,
      "223": 6962,
      "Ġfactors": 6963,
      "ĠÙĪÙĩÙĬ": 6964,
      "uate": 6965,
      "Ġbehav": 6966,
      "ĠMich": 6967,
      "ÙĤØ§ÙģØ©": 6968,
      "cil": 6969,
      "ĠSec": 6970,
      "Ġexpert": 6971,
      "179": 6972,
      "ĠØ§ÙĦØ¹Ø±Ø¨ÙĬ": 6973,
      "yper": 6974,
      "output": 6975,
      "å½ĵ": 6976,
      "ĠØ§ÙĦÙĥØ±Ø©": 6977,
      "Event": 6978,
      "HER": 6979,
      "Ġinvestment": 6980,
      "ĠÙħÙĨÙĩØ§": 6981,
      "176": 6982,
      "inition": 6983,
      "\\r": 6984,
      "ÙĬÙĪÙĨ": 6985,
      "Ġauch": 6986,
      "Ø¸ÙĬÙħ": 6987,
      "mission": 6988,
      "215": 6989,
      "ĠSee": 6990,
      "ĠØ£ÙģØ¶ÙĦ": 6991,
      "Ġà¤ħà¤§": 6992,
      "OC": 6993,
      "ĠGovern": 6994,
      "Ġstudies": 6995,
      "xy": 6996,
      "Ð¸Ðµ": 6997,
      "kin": 6998,
      "Ġdecision": 6999,
      "ĠÙĪØ§ÙĦØ¯": 7000,
      "Ġtool": 7001,
      "Ġcouple": 7002,
      "Ġdro": 7003,
      "ker": 7004,
      "à¤²à¥Ģ": 7005,
      "åĬ¨": 7006,
      "Ġability": 7007,
      "ady": 7008,
      "ĠTime": 7009,
      "225": 7010,
      "ÙĪÙĬÙĦ": 7011,
      "Ġdrive": 7012,
      "ees": 7013,
      "AY": 7014,
      "Ġanim": 7015,
      "Ġtu": 7016,
      "ĠRuss": 7017,
      "ĠØ¨Ø³Ø¨Ø¨": 7018,
      "ĠØ®ÙĪØ¯": 7019,
      "Ġrele": 7020,
      "ĠPower": 7021,
      "ĠØ£ÙħØ§Ùħ": 7022,
      "ĠØ§ÙĦØ£ÙħÙĨ": 7023,
      "ĠWar": 7024,
      "à¯": 7025,
      "err": 7026,
      "ĠAmerica": 7027,
      "fi": 7028,
      "ĠUse": 7029,
      "Ġcapital": 7030,
      "ĠLaw": 7031,
      "185": 7032,
      "PL": 7033,
      "ĠØªÙĥÙĪÙĨ": 7034,
      "Ġmix": 7035,
      "Ġà´Ĵ": 7036,
      "Ġassess": 7037,
      "186": 7038,
      "Ġhit": 7039,
      "åĮº": 7040,
      "ä½ł": 7041,
      "ÙħØª": 7042,
      "mb": 7043,
      "Ġcosts": 7044,
      "enz": 7045,
      "valid": 7046,
      ")(": 7047,
      "irtual": 7048,
      "ĠØ§Ù¾": 7049,
      "attle": 7050,
      "rep": 7051,
      "abase": 7052,
      "428": 7053,
      "à¥ģà¤¨": 7054,
      "çŃī": 7055,
      "Ø§Ø´Ø±": 7056,
      "Ġcomputer": 7057,
      "rt": 7058,
      "Ġcirc": 7059,
      "ancy": 7060,
      "osed": 7061,
      "else": 7062,
      "Ġwoman": 7063,
      "BU": 7064,
      "Ġdiscover": 7065,
      "Not": 7066,
      "ØªÛĴ": 7067,
      "Ġdaily": 7068,
      "ÙħÙĬÙħ": 7069,
      "cher": 7070,
      "Ø®ÙĪÙĦ": 7071,
      "ÙĬØ±Ø§": 7072,
      "ĠSeries": 7073,
      "ç¾İ": 7074,
      "active": 7075,
      "ĠClass": 7076,
      "adio": 7077,
      "ĠØŃÙĤ": 7078,
      "212": 7079,
      "Ġinstit": 7080,
      "009": 7081,
      "ĠÙģÙĬØ¯ÙĬÙĪ": 7082,
      "Ġdeep": 7083,
      "Ġsection": 7084,
      "apa": 7085,
      "Ġwood": 7086,
      "Ġeasily": 7087,
      "ĠØ§ÙĦØ¥ÙĨØ³": 7088,
      "ä¹ĭ": 7089,
      "ĠØ§ÙĦÙħØ´Ø§Ø±": 7090,
      "Ġ\"\\": 7091,
      "osis": 7092,
      "Ġult": 7093,
      "Ġproced": 7094,
      "ĠMal": 7095,
      "Ø±Ø¦ÙĬØ³": 7096,
      "Ġreported": 7097,
      "à¦¾à¦ľ": 7098,
      "ãģ¾ãģĹãģŁ": 7099,
      "ĠÙĥØ¨ÙĬØ±": 7100,
      "ches": 7101,
      "Ġmeasure": 7102,
      "éĩį": 7103,
      "Ġlanguage": 7104,
      "ÑĥÑİ": 7105,
      "ependent": 7106,
      "Ġpret": 7107,
      "ÙħÙĬ": 7108,
      "-v": 7109,
      "oday": 7110,
      "Ġnational": 7111,
      "pace": 7112,
      "Ġinnov": 7113,
      "edding": 7114,
      "à¤¾à¤¯à¤¾": 7115,
      "ãģĦãģ¾ãģĻ": 7116,
      "Ġupon": 7117,
      "ronic": 7118,
      "erman": 7119,
      "oker": 7120,
      "221": 7121,
      "\\uff": 7122,
      "Ġincreased": 7123,
      "ØªØ±Ø©": 7124,
      "VID": 7125,
      "Ġpattern": 7126,
      "Ġchalleng": 7127,
      "ĠØ§ÙĦØŃÙĥÙĪÙħØ©": 7128,
      "Ġviews": 7129,
      "ĠØ§ÙĦÙĤØ¯": 7130,
      "313": 7131,
      "Ø§ÙĪ": 7132,
      "yg": 7133,
      "ÙĤØ¯ÙĬÙħ": 7134,
      "ĠØ¹ÙħÙĦÙĬØ©": 7135,
      "-g": 7136,
      "Inter": 7137,
      "urer": 7138,
      "Ġpun": 7139,
      "Ġitu": 7140,
      "Ġtouch": 7141,
      "Ø§ÙĤØ§Øª": 7142,
      "%Ċ": 7143,
      "event": 7144,
      "Ġpada": 7145,
      "Ġestim": 7146,
      "Ġmi": 7147,
      "ĠCheck": 7148,
      "ÙĥØªÙĪØ±": 7149,
      "à¤¢": 7150,
      "ĠØ§ÙĦØ«ÙĦØ§Ø«": 7151,
      "abet": 7152,
      "iling": 7153,
      "Ġfirm": 7154,
      "Ġsupply": 7155,
      "ilder": 7156,
      "Ġslot": 7157,
      "Ġsuppl": 7158,
      "lang": 7159,
      "Ġdir": 7160,
      "arden": 7161,
      "Ġpossib": 7162,
      "Ġthroughout": 7163,
      "ĠCare": 7164,
      "Ġdeath": 7165,
      "ĠBer": 7166,
      "VER": 7167,
      "184": 7168,
      "ĠØ¬Ø²": 7169,
      "Ø±ÙĪÙģ": 7170,
      "Ġsuit": 7171,
      "ĠAND": 7172,
      "ĠÙĬØ§": 7173,
      "-Mail": 7174,
      "ĠØ§ÙĦØ£ÙĨ": 7175,
      "-al": 7176,
      "ĠPay": 7177,
      "Ġkal": 7178,
      "NAME": 7179,
      "ĠÙĦØ¹": 7180,
      "Ġrent": 7181,
      "Ø§Ø³Ø§Øª": 7182,
      "303": 7183,
      "orge": 7184,
      "167": 7185,
      "à¤Ĩ": 7186,
      "Ġupdate": 7187,
      "ori": 7188,
      "sv": 7189,
      "Ø¬Ø§ÙĨ": 7190,
      "ĠØ£ØŃÙħØ¯": 7191,
      "lan": 7192,
      "fol": 7193,
      "ifornia": 7194,
      "ushing": 7195,
      "erved": 7196,
      "ĠØ§ÙĦØ¨ØŃØ±": 7197,
      "([": 7198,
      "ÙĥÙĨÙĪÙĦÙĪØ¬": 7199,
      "ĠHel": 7200,
      "^{": 7201,
      "plot": 7202,
      "ÙĦØ§Ùģ": 7203,
      "ĠÙĨÛģÛĮÚº": 7204,
      "ĠÙĪØ§ÙĦØŃ": 7205,
      "ØµØ§ÙĦ": 7206,
      "éħ": 7207,
      "ĠInvest": 7208,
      "ederal": 7209,
      "ĠØ¯Ø§Ø®ÙĦ": 7210,
      "ĠÙĪØ²Ø§Ø±Ø©": 7211,
      "Ġtro": 7212,
      "ĠØ§ÙĦÙħØ±ÙĥØ²": 7213,
      "183": 7214,
      "height": 7215,
      "Ġproviding": 7216,
      "Ø³ÙĬÙĨ": 7217,
      "Ø§Ûģ": 7218,
      "ruit": 7219,
      "Ġnice": 7220,
      "rm": 7221,
      "ĠÙĩØ§": 7222,
      "Ġrunning": 7223,
      "Me": 7224,
      "Ø¸ÙħØ©": 7225,
      "æŀľ": 7226,
      "ython": 7227,
      "ĠØ§ÙĦØ¯ÙĬÙĨ": 7228,
      "ĠØ£Øº": 7229,
      "å¤ĸ": 7230,
      "Ġpul": 7231,
      "Ø§ÙħØ§": 7232,
      "aled": 7233,
      "Ġtout": 7234,
      "ackage": 7235,
      "scrib": 7236,
      "ÙĢ": 7237,
      "Ġbath": 7238,
      "ç¥": 7239,
      "Ġexpress": 7240,
      "'),": 7241,
      "Ġbisa": 7242,
      "Ġaccur": 7243,
      "ĠØ®Ø§Ùħ": 7244,
      "ĠØ§ÛĮ": 7245,
      "(L": 7246,
      "ĠTwitter": 7247,
      "Ġquite": 7248,
      "Ġiy": 7249,
      "ĠØ±Ûģ": 7250,
      "ford": 7251,
      "src": 7252,
      "nection": 7253,
      "ĠØ±ÙĤÙħ": 7254,
      "Ġupang": 7255,
      "atin": 7256,
      "Ø·ÙĦØ§ÙĤ": 7257,
      "çī©": 7258,
      "ÙĥÙĬØ©": 7259,
      "à´¾à´¤": 7260,
      "olar": 7261,
      "ĠâĪ": 7262,
      "Ġreceived": 7263,
      "iture": 7264,
      "à¥įà¤¯à¤¾": 7265,
      "ĠÙĨØª": 7266,
      "205": 7267,
      "Rec": 7268,
      "Ã¡n": 7269,
      "','','": 7270,
      "252": 7271,
      "HO": 7272,
      "One": 7273,
      "ĠØ¹ÙĦÙħ": 7274,
      "ĠLet": 7275,
      "Ġvideos": 7276,
      "ãĤ°": 7277,
      "ĠÙĨØŃÙĨ": 7278,
      "à¥Ĥà¤°": 7279,
      "BF": 7280,
      "lear": 7281,
      "ĠAnn": 7282,
[...]
